<pad>	0
<s>	0
</s>	0
<unk>	0
[INST]	0
[/INST]	0
▁t	-0
in	-1
▁a	-2
▁s	-3
he	-4
▁w	-5
ou	-6
▁f	-7
ing	-8
es	-9
▁c	-10
nd	-11
re	-12
▁i	-13
▁m	-14
ha	-15
er	-16
▁b	-17
▁I	-18
ee	-19
▁to	-20
an	-21
▁the	-22
or	-23
▁d	-24
▁l	-25
▁and	-26
on	-27
▁fee	-28
▁feel	-29
en	-30
ll	-31
▁p	-32
it	-33
ay	-34
▁can	-35
▁th	-36
om	-37
ea	-38
▁u	-39
hat	-40
et	-41
▁is	-42
▁it	-43
▁n	-44
le	-45
▁o	-46
▁y	-47
st	-48
▁you	-49
at	-50
▁in	-51
ow	-52
▁e	-53
ke	-54
is	-55
▁ha	-56
out	-57
gh	-58
▁he	-59
▁h	-60
▁li	-61
▁g	-62
▁be	-63
ver	-64
▁we	-65
ve	-66
al	-67
▁re	-68
▁ma	-69
se	-70
ght	-71
our	-72
ic	-73
▁of	-74
im	-75
ly	-76
ar	-77
op	-78
▁that	-79
ct	-80
▁our	-81
▁Y	-82
ut	-83
ld	-84
oo	-85
▁It	-86
▁ab	-87
ings	-88
▁about	-89
▁Yes	-90
▁for	-91
ot	-92
▁st	-93
all	-94
▁whe	-95
▁do	-96
▁som	-97
▁when	-98
▁su	-99
▁T	-100
pp	-101
lp	-102
▁help	-103
▁us	-104
ind	-105
very	-106
ess	-107
her	-108
ink	-109
nder	-110
ri	-111
ter	-112
▁think	-113
ul	-114
ad	-115
▁see	-116
ed	-117
▁like	-118
ion	-119
ore	-120
oy	-121
▁so	-122
ould	-123
ch	-124
▁how	-125
ent	-126
▁j	-127
ir	-128
ally	-129
ust	-130
ound	-131
▁on	-132
ear	-133
ith	-134
▁with	-135
ful	-136
id	-137
ce	-138
▁That	-139
▁not	-140
ant	-141
ort	-142
fe	-143
eop	-144
eople	-145
imes	-146
▁more	-147
ood	-148
▁people	-149
ays	-150
pe	-151
▁happ	-152
▁en	-153
▁every	-154
ng	-155
▁un	-156
▁me	-157
▁but	-158
▁make	-159
▁mak	-160
▁my	-161
ring	-162
▁somet	-163
▁D	-164
and	-165
▁k	-166
ther	-167
▁tr	-168
▁are	-169
day	-170
▁H	-171
▁wor	-172
▁r	-173
▁bet	-174
▁under	-175
▁things	-176
ci	-177
ill	-178
hing	-179
▁Do	-180
▁fr	-181
qu	-182
mp	-183
stand	-184
▁better	-185
▁understand	-186
▁sh	-187
▁this	-188
one	-189
▁pl	-190
▁com	-191
▁cha	-192
▁today	-193
reat	-194
▁really	-195
▁sound	-196
joy	-197
▁enjoy	-198
▁makes	-199
right	-200
▁find	-201
▁feelings	-202
king	-203
▁al	-204
▁imp	-205
▁some	-206
▁they	-207
ope	-208
▁qu	-209
ite	-210
▁ex	-211
▁ne	-212
▁sounds	-213
ight	-214
▁W	-215
ble	-216
▁an	-217
ell	-218
ove	-219
ol	-220
▁hope	-221
ies	-222
▁have	-223
any	-224
▁good	-225
▁sha	-226
▁seem	-227
ime	-228
ions	-229
ain	-230
as	-231
▁sad	-232
▁wo	-233
▁wonder	-234
ure	-235
▁sometimes	-236
▁wh	-237
▁sm	-238
▁time	-239
ice	-240
un	-241
ting	-242
▁out	-243
▁har	-244
▁your	-245
▁or	-246
peci	-247
▁just	-248
▁day	-249
▁will	-250
▁chang	-251
get	-252
▁ev	-253
▁di	-254
▁way	-255
au	-256
ents	-257
▁pr	-258
pr	-259
▁sur	-260
▁dis	-261
are	-262
▁sp	-263
▁fear	-264
▁joy	-265
▁at	-266
eep	-267
▁hard	-268
▁con	-269
ide	-270
▁feeling	-271
▁their	-272
eas	-273
▁sa	-274
▁other	-275
▁very	-276
us	-277
▁import	-278
ello	-279
▁Hello	-280
▁ag	-281
▁tal	-282
ffe	-283
ten	-284
▁if	-285
ac	-286
ry	-287
▁could	-288
ong	-289
▁feels	-290
ur	-291
ose	-292
gether	-293
▁important	-294
▁str	-295
▁happy	-296
os	-297
▁even	-298
▁ta	-299
▁am	-300
pris	-301
▁surpris	-302
ness	-303
▁many	-304
▁often	-305
▁together	-306
ely	-307
▁mom	-308
▁S	-309
▁love	-310
▁thou	-311
▁all	-312
▁there	-313
▁es	-314
▁bright	-315
ge	-316
ause	-317
▁everyone	-318
▁ar	-319
▁bec	-320
▁what	-321
▁as	-322
av	-323
▁new	-324
▁thought	-325
pecially	-326
▁especially	-327
▁nice	-328
▁should	-329
ish	-330
▁days	-331
side	-332
▁up	-333
ive	-334
▁bit	-335
▁does	-336
th	-337
ves	-338
ook	-339
ead	-340
ree	-341
▁bring	-342
▁keep	-343
▁would	-344
▁cl	-345
▁moments	-346
thing	-347
▁quite	-348
eed	-349
ren	-350
ways	-351
ough	-352
▁always	-353
▁A	-354
eather	-355
▁want	-356
able	-357
▁creat	-358
▁M	-359
▁sun	-360
ard	-361
▁change	-362
▁because	-363
▁small	-364
▁ea	-365
▁go	-366
▁helps	-367
ie	-368
▁weather	-369
▁id	-370
art	-371
▁these	-372
▁from	-373
▁seems	-374
▁such	-375
▁might	-376
▁mu	-377
▁fun	-378
▁them	-379
lect	-380
fort	-381
il	-382
act	-383
▁everything	-384
ick	-385
▁too	-386
rat	-387
▁those	-388
me	-389
▁act	-390
▁something	-391
pect	-392
▁life	-393
▁much	-394
est	-395
ue	-396
▁talk	-397
flect	-398
▁nat	-399
ark	-400
▁bad	-401
ast	-402
ace	-403
▁try	-404
▁sc	-405
ers	-406
▁wish	-407
pl	-408
▁others	-409
end	-410
tle	-411
▁lit	-412
fferen	-413
▁differen	-414
▁agree	-415
▁pro	-416
▁ang	-417
▁br	-418
▁outside	-419
▁around	-420
▁great	-421
ile	-422
ig	-423
lean	-424
ories	-425
▁du	-426
ect	-427
ate	-428
ustrat	-429
▁little	-430
▁over	-431
▁frustrat	-432
▁plan	-433
bs	-434
▁care	-435
iness	-436
▁need	-437
▁pos	-438
▁share	-439
▁ch	-440
▁de	-441
▁What	-442
han	-443
ft	-444
now	-445
▁v	-446
riend	-447
oc	-448
▁gr	-449
▁bea	-450
▁during	-451
orm	-452
▁friend	-453
ation	-454
▁look	-455
olut	-456
olutely	-457
▁any	-458
▁times	-459
ous	-460
bsolutely	-461
▁Absolutely	-462
▁was	-463
▁clean	-464
ity	-465
▁stay	-466
hy	-467
▁nature	-468
eri	-469
▁surprising	-470
▁beaut	-471
ving	-472
▁heav	-473
▁happen	-474
ment	-475
▁wonderful	-476
arm	-477
▁less	-478
be	-479
▁Som	-480
▁get	-481
its	-482
gust	-483
▁disgust	-484
▁create	-485
▁aw	-486
▁idea	-487
▁ways	-488
▁ever	-489
▁now	-490
▁frustrating	-491
▁light	-492
ors	-493
▁inter	-494
▁heavy	-495
▁co	-496
▁thoughts	-497
▁fl	-498
▁making	-499
ack	-500
▁work	-501
▁right	-502
iting	-503
earn	-504
iv	-505
▁happiness	-506
▁lovely	-507
▁by	-508
▁Why	-509
▁sadness	-510
▁food	-511
am	-512
ier	-513
esting	-514
lie	-515
▁know	-516
▁warm	-517
▁Somet	-518
▁Sometimes	-519
mb	-520
▁angry	-521
▁big	-522
▁app	-523
aybe	-524
▁comm	-525
flecting	-526
▁posit	-527
▁af	-528
▁learn	-529
▁each	-530
▁while	-531
▁sharing	-532
▁take	-533
▁mind	-534
▁heal	-535
▁tough	-536
▁friends	-537
▁lead	-538
▁belie	-539
ff	-540
ily	-541
▁che	-542
▁soon	-543
ds	-544
▁F	-545
▁interesting	-546
ine	-547
▁exp	-548
▁How	-549
▁wat	-550
ome	-551
▁different	-552
▁E	-553
▁sim	-554
▁comfort	-555
ms	-556
set	-557
▁positive	-558
ffect	-559
▁again	-560
▁kind	-561
▁strong	-562
▁than	-563
▁wal	-564
▁believe	-565
mber	-566
ange	-567
▁lives	-568
aces	-569
▁ad	-570
nect	-571
ps	-572
▁cal	-573
▁calm	-574
▁inst	-575
ple	-576
▁mem	-577
member	-578
▁res	-579
▁lift	-580
ult	-581
▁rel	-582
▁connect	-583
▁brings	-584
▁safe	-585
erien	-586
ward	-587
▁experien	-588
▁without	-589
▁changes	-590
▁fut	-591
ary	-592
▁future	-593
▁mo	-594
▁beauti	-595
▁R	-596
own	-597
▁world	-598
ations	-599
sel	-600
age	-601
ared	-602
▁dark	-603
▁spir	-604
▁health	-605
ities	-606
▁sit	-607
so	-608
ces	-609
▁also	-610
ag	-611
▁supp	-612
eal	-613
▁has	-614
▁instead	-615
▁fears	-616
▁foc	-617
▁true	-618
▁did	-619
▁beautiful	-620
▁after	-621
▁The	-622
▁mood	-623
▁remember	-624
▁Many	-625
de	-626
ny	-627
▁rem	-628
▁down	-629
▁simple	-630
▁memories	-631
ices	-632
▁quick	-633
▁talking	-634
ert	-635
▁disc	-636
▁being	-637
▁speci	-638
eace	-639
▁strange	-640
▁peace	-641
▁sk	-642
ull	-643
▁well	-644
▁away	-645
▁spirits	-646
▁why	-647
ffic	-648
oom	-649
iz	-650
reci	-651
▁unc	-652
▁hear	-653
▁special	-654
▁gu	-655
▁op	-656
als	-657
▁focus	-658
ich	-659
▁eas	-660
▁lat	-661
whe	-662
▁cho	-663
ave	-664
▁Ex	-665
▁col	-666
▁grow	-667
▁no	-668
▁upset	-669
▁scared	-670
actly	-671
fficult	-672
▁difficult	-673
▁remind	-674
▁disgusted	-675
▁brighter	-676
▁play	-677
▁support	-678
▁dr	-679
▁long	-680
to	-681
▁Re	-682
ist	-683
▁bl	-684
▁appreci	-685
▁which	-686
▁expect	-687
ise	-688
ax	-689
▁Exactly	-690
ild	-691
▁walk	-692
▁affect	-693
▁park	-694
▁situ	-695
▁worry	-696
red	-697
ooking	-698
▁gl	-699
▁exc	-700
esh	-701
▁still	-702
▁show	-703
▁heart	-704
▁worri	-705
not	-706
inding	-707
▁impr	-708
▁proble	-709
▁quickly	-710
▁relax	-711
▁Finding	-712
si	-713
▁stories	-714
▁read	-715
▁clear	-716
▁se	-717
▁use	-718
▁appreciate	-719
▁commun	-720
▁norm	-721
ance	-722
ening	-723
▁normal	-724
uly	-725
▁understanding	-726
▁fresh	-727
urn	-728
▁truly	-729
▁C	-730
ching	-731
▁saf	-732
▁bu	-733
avor	-734
▁rain	-735
▁made	-736
▁activ	-737
▁sen	-738
▁thr	-739
▁into	-740
oin	-741
▁sl	-742
llen	-743
▁let	-744
▁fearful	-745
▁sunny	-746
xt	-747
▁challen	-748
een	-749
▁air	-750
▁Maybe	-751
▁wee	-752
du	-753
▁wr	-754
▁night	-755
ty	-756
▁ideas	-757
app	-758
▁scary	-759
▁start	-760
▁sense	-761
▁come	-762
▁bot	-763
▁cannot	-764
▁Reflecting	-765
▁one	-766
▁ind	-767
▁mess	-768
▁reflect	-769
▁choices	-770
▁places	-771
▁guess	-772
ak	-773
▁favor	-774
▁don	-775
▁env	-776
iron	-777
▁environ	-778
▁improve	-779
▁list	-780
▁difference	-781
▁thinking	-782
▁next	-783
▁cheer	-784
ck	-785
ix	-786
▁challeng	-787
▁favorite	-788
▁tast	-789
▁inside	-790
▁bo	-791
▁someone	-792
▁back	-793
▁une	-794
pected	-795
ertain	-796
▁actions	-797
az	-798
▁having	-799
▁car	-800
▁enjoyable	-801
▁unex	-802
▁environment	-803
▁tea	-804
ety	-805
▁pre	-806
▁flow	-807
el	-808
▁activities	-809
ious	-810
fin	-811
fore	-812
▁before	-813
kay	-814
▁compl	-815
wn	-816
lic	-817
▁okay	-818
itely	-819
▁des	-820
pend	-821
▁place	-822
▁last	-823
finitely	-824
▁problems	-825
▁amaz	-826
▁expl	-827
▁lea	-828
mot	-829
▁mat	-830
▁real	-831
▁cr	-832
▁unexpected	-833
▁ste	-834
▁off	-835
▁lately	-836
oud	-837
▁space	-838
▁ho	-839
▁surprised	-840
sh	-841
▁finding	-842
▁reflecting	-843
▁may	-844
easant	-845
ures	-846
ning	-847
▁iss	-848
▁maybe	-849
▁wind	-850
▁through	-851
▁sol	-852
▁alone	-853
▁happier	-854
▁isn	-855
▁You	-856
▁anim	-857
les	-858
ence	-859
▁sw	-860
sible	-861
selves	-862
▁inv	-863
▁its	-864
▁here	-865
▁amazing	-866
eet	-867
ling	-868
▁lo	-869
▁per	-870
▁colors	-871
▁Have	-872
▁been	-873
▁same	-874
▁news	-875
▁mis	-876
ming	-877
▁end	-878
▁minds	-879
▁dir	-880
▁experiences	-881
hank	-882
▁brighten	-883
▁Thank	-884
gg	-885
▁storm	-886
▁cold	-887
▁worries	-888
▁forward	-889
▁complet	-890
ap	-891
ass	-892
▁anger	-893
▁face	-894
shine	-895
▁deep	-896
▁bre	-897
▁wa	-898
▁emot	-899
▁joyful	-900
▁enjoying	-901
ues	-902
▁fam	-903
▁plans	-904
▁understandable	-905
▁going	-906
▁who	-907
▁flowers	-908
vers	-909
▁cheerful	-910
▁beauty	-911
▁saw	-912
▁old	-913
▁sec	-914
▁open	-915
▁da	-916
▁kindness	-917
▁turn	-918
iet	-919
easy	-920
▁rec	-921
air	-922
ical	-923
▁sunshine	-924
▁uneasy	-925
▁animals	-926
head	-927
▁sky	-928
▁water	-929
whel	-930
▁overwhel	-931
▁had	-932
ory	-933
sing	-934
ully	-935
ize	-936
▁experience	-937
▁quiet	-938
▁ahead	-939
hes	-940
▁att	-941
row	-942
▁gard	-943
▁discus	-944
▁emotions	-945
▁healthy	-946
▁pat	-947
ks	-948
▁learning	-949
▁Th	-950
ool	-951
▁both	-952
▁build	-953
▁own	-954
▁meal	-955
▁happening	-956
▁mus	-957
oor	-958
ked	-959
ffort	-960
▁situation	-961
▁effort	-962
▁lot	-963
▁conf	-964
ire	-965
▁taking	-966
▁tre	-967
▁looks	-968
ang	-969
igh	-970
▁plant	-971
▁pic	-972
▁sure	-973
▁hearts	-974
▁man	-975
▁daily	-976
▁gloom	-977
▁joys	-978
▁ourselves	-979
▁trying	-980
▁issues	-981
▁unpl	-982
▁exciting	-983
▁unk	-984
▁We	-985
come	-986
▁ease	-987
▁stre	-988
▁moment	-989
▁cause	-990
▁dirty	-991
▁never	-992
▁cont	-993
▁bus	-994
ts	-995
▁notic	-996
▁common	-997
ne	-998
cess	-999
ually	-1000
▁val	-1001
▁upsetting	-1002
▁hand	-1003
▁lau	-1004
▁lighten	-1005
▁book	-1006
▁av	-1007
▁wrong	-1008
▁garden	-1009
round	-1010
▁spend	-1011
aking	-1012
▁gloomy	-1013
▁best	-1014
▁year	-1015
▁pain	-1016
▁smell	-1017
sp	-1018
▁completely	-1019
self	-1020
gy	-1021
▁past	-1022
gn	-1023
▁safety	-1024
fully	-1025
▁music	-1026
ows	-1027
▁comp	-1028
▁dec	-1029
▁part	-1030
▁ac	-1031
where	-1032
▁shin	-1033
▁tri	-1034
▁break	-1035
▁home	-1036
▁vis	-1037
▁noticed	-1038
▁week	-1039
▁pu	-1040
▁helpful	-1041
oun	-1042
haps	-1043
▁art	-1044
▁convers	-1045
oors	-1046
ake	-1047
▁heard	-1048
den	-1049
light	-1050
▁doesn	-1051
mor	-1052
▁near	-1053
oose	-1054
▁disgusting	-1055
▁respect	-1056
▁smile	-1057
▁sn	-1058
▁loud	-1059
ouds	-1060
▁surround	-1061
▁wel	-1062
ip	-1063
ject	-1064
▁fix	-1065
▁fright	-1066
▁shows	-1067
▁community	-1068
▁clouds	-1069
▁easier	-1070
▁ann	-1071
estion	-1072
▁hold	-1073
▁move	-1074
▁resp	-1075
▁surprises	-1076
▁drink	-1077
ash	-1078
▁outd	-1079
▁family	-1080
▁overwhelming	-1081
▁annoy	-1082
ural	-1083
omfort	-1084
▁pers	-1085
▁unpleasant	-1086
▁unf	-1087
press	-1088
▁keeping	-1089
▁ti	-1090
acing	-1091
▁worse	-1092
olve	-1093
oid	-1094
▁forget	-1095
▁ru	-1096
▁lost	-1097
ra	-1098
▁stress	-1099
▁avoid	-1100
▁possible	-1101
▁adv	-1102
▁must	-1103
▁situations	-1104
▁explore	-1105
▁cooking	-1106
over	-1107
▁express	-1108
▁ener	-1109
▁looking	-1110
▁cons	-1111
▁yes	-1112
▁natural	-1113
▁challenges	-1114
ign	-1115
▁disapp	-1116
▁using	-1117
▁wast	-1118
ments	-1119
ating	-1120
▁staying	-1121
▁dist	-1122
▁slow	-1123
ail	-1124
terday	-1125
ons	-1126
▁solut	-1127
▁watching	-1128
▁most	-1129
▁surprise	-1130
erv	-1131
▁wise	-1132
▁anx	-1133
▁tas	-1134
kes	-1135
▁yesterday	-1136
▁stick	-1137
▁definitely	-1138
▁add	-1139
▁enc	-1140
sed	-1141
▁ro	-1142
▁discuss	-1143
▁safer	-1144
▁everywhere	-1145
▁le	-1146
▁full	-1147
▁trees	-1148
▁listen	-1149
▁conc	-1150
▁el	-1151
▁involve	-1152
▁mean	-1153
read	-1154
▁spaces	-1155
li	-1156
▁welcome	-1157
▁uncertain	-1158
▁stru	-1159
▁respon	-1160
duce	-1161
ud	-1162
▁St	-1163
▁im	-1164
▁where	-1165
morrow	-1166
▁tomorrow	-1167
▁reading	-1168
▁effect	-1169
▁unw	-1170
▁Those	-1171
▁peaceful	-1172
▁plants	-1173
▁events	-1174
▁hur	-1175
▁color	-1176
ourage	-1177
ab	-1178
▁surroundings	-1179
▁gets	-1180
ems	-1181
▁discover	-1182
▁involved	-1183
▁seeing	-1184
hang	-1185
▁bir	-1186
▁energy	-1187
▁disappoin	-1188
▁words	-1189
▁ri	-1190
▁lighter	-1191
▁taste	-1192
▁annoying	-1193
▁ign	-1194
▁playing	-1195
▁indeed	-1196
▁insp	-1197
▁top	-1198
▁trou	-1199
ets	-1200
form	-1201
▁anxious	-1202
ince	-1203
▁sweet	-1204
▁frightening	-1205
▁unfair	-1206
▁prop	-1207
▁since	-1208
▁busy	-1209
▁Did	-1210
▁impact	-1211
▁anyone	-1212
res	-1213
▁delic	-1214
▁facing	-1215
▁realize	-1216
▁treat	-1217
▁certain	-1218
▁uncomfort	-1219
▁notice	-1220
ather	-1221
erious	-1222
ame	-1223
▁were	-1224
▁she	-1225
▁say	-1226
▁waste	-1227
▁jour	-1228
▁aware	-1229
▁warmth	-1230
▁chat	-1231
alking	-1232
▁imag	-1233
kend	-1234
▁hab	-1235
less	-1236
▁reas	-1237
ention	-1238
▁weekend	-1239
ach	-1240
▁become	-1241
fect	-1242
ises	-1243
▁challenging	-1244
▁waiting	-1245
▁watch	-1246
▁deal	-1247
▁doing	-1248
▁walking	-1249
▁uncomfortable	-1250
ney	-1251
▁thank	-1252
▁journey	-1253
▁fel	-1254
▁felt	-1255
▁bal	-1256
▁dang	-1257
oring	-1258
iew	-1259
ount	-1260
hed	-1261
▁pow	-1262
oss	-1263
aw	-1264
ivity	-1265
▁matter	-1266
▁ones	-1267
▁hopeful	-1268
raid	-1269
▁perfect	-1270
▁tired	-1271
▁easily	-1272
▁yet	-1273
omes	-1274
▁steps	-1275
ract	-1276
▁toward	-1277
▁later	-1278
▁listening	-1279
▁question	-1280
▁getting	-1281
mm	-1282
▁project	-1283
▁takes	-1284
▁ref	-1285
▁spending	-1286
▁rest	-1287
▁ignore	-1288
▁mov	-1289
▁usually	-1290
▁run	-1291
▁person	-1292
▁De	-1293
▁afraid	-1294
▁choose	-1295
▁careful	-1296
ated	-1297
▁tasks	-1298
▁Definitely	-1299
▁visit	-1300
▁comes	-1301
▁room	-1302
▁mor	-1303
▁view	-1304
▁serious	-1305
▁strugg	-1306
▁worried	-1307
▁low	-1308
▁mar	-1309
▁unkind	-1310
▁reg	-1311
▁mist	-1312
▁stronger	-1313
ush	-1314
▁miss	-1315
▁dri	-1316
▁messy	-1317
▁meals	-1318
▁needs	-1319
blic	-1320
▁high	-1321
▁fo	-1322
hen	-1323
▁concer	-1324
▁manage	-1325
▁public	-1326
▁tried	-1327
▁neg	-1328
▁items	-1329
ghter	-1330
▁prot	-1331
▁encourage	-1332
▁stop	-1333
aying	-1334
▁unapp	-1335
▁mix	-1336
ently	-1337
▁working	-1338
▁connected	-1339
▁habits	-1340
▁hid	-1341
pes	-1342
osp	-1343
ade	-1344
ames	-1345
▁communic	-1346
uck	-1347
▁fru	-1348
▁te	-1349
▁trash	-1350
▁uni	-1351
▁beha	-1352
▁soft	-1353
▁pol	-1354
ider	-1355
ular	-1356
▁seas	-1357
▁dog	-1358
▁weight	-1359
▁leave	-1360
▁story	-1361
▁win	-1362
mmer	-1363
▁asking	-1364
▁cur	-1365
other	-1366
▁eat	-1367
▁found	-1368
ives	-1369
akes	-1370
▁bod	-1371
▁used	-1372
▁advent	-1373
▁power	-1374
ock	-1375
▁fall	-1376
▁ear	-1377
led	-1378
▁reduce	-1379
▁breat	-1380
▁focusing	-1381
▁prep	-1382
em	-1383
▁contr	-1384
▁storms	-1385
▁step	-1386
▁keeps	-1387
▁disappointing	-1388
▁attention	-1389
▁her	-1390
▁inc	-1391
▁give	-1392
▁smoo	-1393
ited	-1394
▁refres	-1395
▁cleaning	-1396
▁fir	-1397
hange	-1398
▁happens	-1399
▁balance	-1400
▁proper	-1401
▁harder	-1402
▁solutions	-1403
ew	-1404
▁outdoors	-1405
▁overall	-1406
▁Talking	-1407
▁meet	-1408
ken	-1409
▁noises	-1410
▁child	-1411
▁else	-1412
▁fill	-1413
▁shining	-1414
▁living	-1415
▁clot	-1416
▁noise	-1417
ict	-1418
▁consider	-1419
gan	-1420
▁glad	-1421
oney	-1422
iling	-1423
▁trick	-1424
▁decis	-1425
▁conversations	-1426
ooked	-1427
▁handle	-1428
▁easy	-1429
▁control	-1430
▁cu	-1431
▁fast	-1432
▁morning	-1433
▁live	-1434
▁hurt	-1435
▁negat	-1436
▁danger	-1437
▁myself	-1438
▁harm	-1439
ru	-1440
▁vi	-1441
▁gre	-1442
▁connections	-1443
▁first	-1444
▁hu	-1445
▁coming	-1446
▁Taking	-1447
ual	-1448
vi	-1449
▁There	-1450
▁put	-1451
▁uniqu	-1452
▁spread	-1453
▁deeply	-1454
▁bro	-1455
▁shad	-1456
▁cat	-1457
idy	-1458
▁comforting	-1459
ics	-1460
oming	-1461
sib	-1462
▁reminds	-1463
▁seen	-1464
▁money	-1465
▁fin	-1466
▁games	-1467
▁pleasant	-1468
▁chan	-1469
▁behavi	-1470
▁inform	-1471
▁sticky	-1472
here	-1473
▁reason	-1474
ips	-1475
▁wear	-1476
▁unique	-1477
▁fly	-1478
▁funny	-1479
▁wet	-1480
▁choice	-1481
▁carry	-1482
▁laughter	-1483
▁winter	-1484
▁blue	-1485
▁path	-1486
▁concern	-1487
▁ready	-1488
tions	-1489
▁tou	-1490
▁pict	-1491
▁refreshing	-1492
▁tidy	-1493
ket	-1494
▁creating	-1495
▁secre	-1496
▁unexpectedly	-1497
▁smooth	-1498
▁pass	-1499
▁anything	-1500
▁inspire	-1501
osing	-1502
▁streng	-1503
▁far	-1504
▁cau	-1505
▁eating	-1506
▁protect	-1507
▁join	-1508
▁shared	-1509
▁pri	-1510
▁close	-1511
▁enough	-1512
oup	-1513
using	-1514
eeting	-1515
▁acc	-1516
ality	-1517
▁once	-1518
▁summer	-1519
▁towards	-1520
▁snack	-1521
▁pati	-1522
▁mon	-1523
by	-1524
duc	-1525
▁free	-1526
▁pract	-1527
▁relaxed	-1528
ger	-1529
▁Ind	-1530
▁organ	-1531
ervous	-1532
▁nervous	-1533
▁event	-1534
▁ruin	-1535
▁spring	-1536
▁Indeed	-1537
▁perhaps	-1538
▁caring	-1539
▁goes	-1540
▁affects	-1541
▁kit	-1542
▁dry	-1543
ealing	-1544
▁picn	-1545
▁longer	-1546
▁Sha	-1547
erhaps	-1548
▁writing	-1549
▁desp	-1550
mosp	-1551
▁atmosp	-1552
ines	-1553
▁importance	-1554
under	-1555
▁aut	-1556
▁short	-1557
▁atmosphere	-1558
▁area	-1559
▁design	-1560
ven	-1561
▁poor	-1562
▁despite	-1563
▁comfortable	-1564
▁young	-1565
▁regular	-1566
sibil	-1567
▁team	-1568
▁lone	-1569
▁only	-1570
▁rough	-1571
rp	-1572
▁birds	-1573
▁meeting	-1574
▁options	-1575
▁check	-1576
▁sharp	-1577
ream	-1578
▁cope	-1579
▁cloud	-1580
▁frustration	-1581
▁ground	-1582
▁excited	-1583
▁cook	-1584
▁secure	-1585
eat	-1586
▁Staying	-1587
▁My	-1588
▁poin	-1589
▁helping	-1590
▁moving	-1591
▁unclean	-1592
▁broken	-1593
ener	-1594
▁thick	-1595
▁wait	-1596
key	-1597
▁Tr	-1598
▁children	-1599
▁soci	-1600
zy	-1601
▁calming	-1602
▁tight	-1603
ork	-1604
▁looked	-1605
▁delight	-1606
▁stuck	-1607
chen	-1608
▁shadows	-1609
▁tasty	-1610
▁kitchen	-1611
▁building	-1612
▁Change	-1613
▁swim	-1614
opp	-1615
▁bur	-1616
▁sleep	-1617
ase	-1618
llow	-1619
▁In	-1620
▁med	-1621
esent	-1622
▁left	-1623
▁cher	-1624
▁laugh	-1625
▁bloom	-1626
▁ju	-1627
▁unset	-1628
▁alive	-1629
▁quality	-1630
▁problem	-1631
ond	-1632
pt	-1633
▁troub	-1634
▁materi	-1635
nown	-1636
▁movie	-1637
liness	-1638
cts	-1639
▁growth	-1640
dd	-1641
▁cozy	-1642
▁wanted	-1643
ains	-1644
coming	-1645
▁properly	-1646
▁unknown	-1647
▁value	-1648
▁brightly	-1649
ature	-1650
fting	-1651
▁met	-1652
▁foods	-1653
▁Some	-1654
▁leaves	-1655
▁exploring	-1656
▁Sharing	-1657
▁uns	-1658
tling	-1659
▁clearly	-1660
▁hop	-1661
▁relaxing	-1662
▁behavior	-1663
ized	-1664
▁mixed	-1665
▁pref	-1666
▁delightful	-1667
hips	-1668
cessary	-1669
ills	-1670
▁tall	-1671
▁depend	-1672
▁books	-1673
▁shake	-1674
▁among	-1675
▁prefer	-1676
▁connection	-1677
▁responsible	-1678
ules	-1679
▁unsettling	-1680
▁react	-1681
▁unin	-1682
▁lonely	-1683
▁another	-1684
ouse	-1685
▁unhe	-1686
ife	-1687
▁unt	-1688
▁communication	-1689
▁conversation	-1690
▁river	-1691
▁recently	-1692
cin	-1693
▁det	-1694
▁reward	-1695
▁fas	-1696
▁fascin	-1697
ition	-1698
▁house	-1699
▁delicious	-1700
▁process	-1701
▁point	-1702
▁opp	-1703
▁fascinating	-1704
▁rece	-1705
ails	-1706
▁fre	-1707
▁meaning	-1708
▁driving	-1709
ned	-1710
▁snow	-1711
astic	-1712
▁strength	-1713
vel	-1714
▁changing	-1715
▁fact	-1716
▁beh	-1717
▁tool	-1718
ocking	-1719
ledge	-1720
▁behind	-1721
▁picnic	-1722
▁heat	-1723
▁decisions	-1724
▁bringing	-1725
▁song	-1726
▁curren	-1727
illy	-1728
▁snacks	-1729
▁confid	-1730
▁cherish	-1731
▁sign	-1732
▁colorful	-1733
▁polit	-1734
▁sy	-1735
▁hat	-1736
▁current	-1737
▁yourself	-1738
▁thing	-1739
▁road	-1740
▁trust	-1741
▁rules	-1742
▁unappealing	-1743
▁season	-1744
▁educ	-1745
redict	-1746
▁dam	-1747
▁moon	-1748
▁creates	-1749
▁gather	-1750
▁lack	-1751
▁secret	-1752
ches	-1753
▁nearby	-1754
▁indoors	-1755
▁nothing	-1756
▁happened	-1757
▁moods	-1758
▁bother	-1759
▁coll	-1760
ween	-1761
▁between	-1762
▁negative	-1763
der	-1764
▁everyday	-1765
▁pay	-1766
▁touch	-1767
▁expected	-1768
rate	-1769
▁planned	-1770
ro	-1771
▁discussions	-1772
▁chance	-1773
▁ty	-1774
ress	-1775
▁awareness	-1776
▁unwell	-1777
▁cut	-1778
▁gives	-1779
▁trave	-1780
▁sugg	-1781
▁imagin	-1782
▁red	-1783
▁planet	-1784
▁unp	-1785
▁though	-1786
▁mistakes	-1787
▁gener	-1788
▁cleaner	-1789
▁medical	-1790
▁emp	-1791
▁loved	-1792
bt	-1793
viting	-1794
iles	-1795
izing	-1796
erve	-1797
▁issue	-1798
▁healthier	-1799
▁rather	-1800
▁matters	-1801
▁political	-1802
dden	-1803
▁town	-1804
▁communities	-1805
▁sudden	-1806
▁viol	-1807
ene	-1808
▁ris	-1809
▁window	-1810
▁patience	-1811
▁sil	-1812
▁tw	-1813
▁cond	-1814
▁star	-1815
▁bodies	-1816
▁action	-1817
▁uninviting	-1818
amp	-1819
▁po	-1820
▁guide	-1821
▁bigger	-1822
▁cleanliness	-1823
▁month	-1824
ction	-1825
▁curi	-1826
▁roo	-1827
▁efforts	-1828
▁True	-1829
being	-1830
▁outdoor	-1831
▁smells	-1832
▁society	-1833
orn	-1834
lf	-1835
bb	-1836
▁sea	-1837
ses	-1838
▁famil	-1839
▁knowledge	-1840
▁hot	-1841
▁spot	-1842
▁adventure	-1843
used	-1844
▁hist	-1845
▁tell	-1846
▁rep	-1847
▁sho	-1848
▁draw	-1849
ries	-1850
▁homes	-1851
▁clothes	-1852
▁adds	-1853
▁fruit	-1854
▁bitter	-1855
aging	-1856
▁sunlight	-1857
▁delicate	-1858
work	-1859
▁valu	-1860
▁present	-1861
▁education	-1862
▁eng	-1863
▁creativity	-1864
▁game	-1865
▁dangerous	-1866
▁jump	-1867
▁cool	-1868
▁filled	-1869
▁hidden	-1870
▁produ	-1871
▁pets	-1872
▁skin	-1873
▁parks	-1874
▁vo	-1875
▁creative	-1876
▁trouble	-1877
bor	-1878
ests	-1879
orth	-1880
▁reci	-1881
▁pap	-1882
oke	-1883
chool	-1884
▁oven	-1885
▁appear	-1886
▁tools	-1887
ze	-1888
▁information	-1889
med	-1890
▁ret	-1891
▁whole	-1892
▁upli	-1893
▁smiles	-1894
▁struggle	-1895
▁sty	-1896
▁few	-1897
▁areas	-1898
ost	-1899
uel	-1900
▁losing	-1901
▁history	-1902
▁school	-1903
▁dust	-1904
ying	-1905
▁flat	-1906
▁necessary	-1907
sw	-1908
iss	-1909
▁dull	-1910
▁load	-1911
iring	-1912
▁Would	-1913
ivid	-1914
▁confusing	-1915
▁materials	-1916
like	-1917
▁personal	-1918
▁orn	-1919
▁discussing	-1920
▁appro	-1921
ale	-1922
▁syst	-1923
▁jud	-1924
▁Hope	-1925
▁return	-1926
▁key	-1927
▁sand	-1928
▁topics	-1929
tain	-1930
▁badness	-1931
▁offer	-1932
▁cover	-1933
ages	-1934
▁dead	-1935
itions	-1936
▁solid	-1937
▁unpredict	-1938
▁flav	-1939
▁prov	-1940
▁drinks	-1941
▁frustrated	-1942
fl	-1943
▁missing	-1944
▁cruel	-1945
▁flavors	-1946
apt	-1947
▁themselves	-1948
▁equ	-1949
▁store	-1950
▁ce	-1951
ought	-1952
look	-1953
▁surely	-1954
▁thin	-1955
▁match	-1956
▁cheap	-1957
iff	-1958
hys	-1959
leb	-1960
▁rout	-1961
▁They	-1962
ans	-1963
▁grey	-1964
▁responsibil	-1965
▁ber	-1966
▁train	-1967
alse	-1968
▁fool	-1969
▁clos	-1970
▁skills	-1971
chn	-1972
▁ill	-1973
▁grass	-1974
onest	-1975
▁false	-1976
▁hearing	-1977
▁rainy	-1978
▁careless	-1979
▁foolish	-1980
▁land	-1981
▁phys	-1982
▁individ	-1983
▁stressful	-1984
▁ey	-1985
▁fore	-1986
▁black	-1987
▁details	-1988
▁lose	-1989
▁activity	-1990
▁techn	-1991
▁fight	-1992
▁priv	-1993
▁practice	-1994
▁enjoyed	-1995
▁jo	-1996
▁dear	-1997
▁stiff	-1998
▁market	-1999
▁answ	-2000
▁litter	-2001
▁slowly	-2002
▁celeb	-2003
▁positively	-2004
▁brave	-2005
▁shine	-2006
▁lim	-2007
▁travel	-2008
▁walks	-2009
ishing	-2010
▁gross	-2011
▁loose	-2012
▁distract	-2013
▁tree	-2014
▁imagine	-2015
▁white	-2016
▁shines	-2017
▁mach	-2018
▁toy	-2019
uals	-2020
▁farm	-2021
▁painting	-2022
▁sight	-2023
▁stret	-2024
▁bas	-2025
▁serv	-2026
▁wide	-2027
▁nar	-2028
▁solution	-2029
▁unpredictable	-2030
▁set	-2031
▁opin	-2032
par	-2033
▁until	-2034
ens	-2035
▁teach	-2036
▁narrow	-2037
▁effective	-2038
▁sci	-2039
▁physical	-2040
▁paint	-2041
▁complete	-2042
▁meaningful	-2043
▁private	-2044
▁works	-2045
▁individuals	-2046
▁thri	-2047
▁damage	-2048
▁closer	-2049
cle	-2050
um	-2051
▁ice	-2052
ield	-2053
▁incre	-2054
▁burden	-2055
ids	-2056
▁fruits	-2057
▁planning	-2058
▁hang	-2059
ults	-2060
▁fair	-2061
ilar	-2062
▁ca	-2063
ivated	-2064
▁sing	-2065
▁unus	-2066
▁excite	-2067
▁mot	-2068
▁Remember	-2069
anc	-2070
▁dream	-2071
▁company	-2072
▁awake	-2073
▁spea	-2074
▁mil	-2075
▁honest	-2076
▁paper	-2077
▁tastes	-2078
▁leads	-2079
▁similar	-2080
▁violent	-2081
▁burn	-2082
▁seek	-2083
▁skies	-2084
▁excitement	-2085
▁curious	-2086
▁leather	-2087
▁overwhelmed	-2088
ppy	-2089
▁accid	-2090
▁lively	-2091
▁then	-2092
▁concerns	-2093
oot	-2094
▁dirt	-2095
▁unusual	-2096
ift	-2097
▁suggest	-2098
▁breath	-2099
▁powerful	-2100
▁prom	-2101
▁soup	-2102
time	-2103
▁hands	-2104
▁bent	-2105
▁effects	-2106
▁yell	-2107
▁cake	-2108
bject	-2109
▁war	-2110
▁him	-2111
▁To	-2112
ires	-2113
more	-2114
▁anymore	-2115
▁This	-2116
▁tricky	-2117
▁pictures	-2118
atic	-2119
▁field	-2120
▁certainly	-2121
▁picture	-2122
▁fearfulness	-2123
▁fish	-2124
▁pull	-2125
▁spo	-2126
▁loss	-2127
▁twist	-2128
▁relations	-2129
▁lessen	-2130
night	-2131
▁able	-2132
▁breaks	-2133
▁flying	-2134
ial	-2135
eing	-2136
▁families	-2137
▁stand	-2138
▁cloudy	-2139
▁prev	-2140
fit	-2141
▁body	-2142
▁press	-2143
▁manag	-2144
▁dislike	-2145
▁prepare	-2146
ances	-2147
▁smart	-2148
▁inse	-2149
▁pen	-2150
▁gent	-2151
▁mid	-2152
cious	-2153
▁shape	-2154
opping	-2155
▁along	-2156
▁pur	-2157
ertile	-2158
▁winds	-2159
▁Me	-2160
dle	-2161
▁yellow	-2162
▁hum	-2163
▁gentle	-2164
▁lessons	-2165
▁teamwork	-2166
▁feeble	-2167
▁spade	-2168
▁prob	-2169
▁fertile	-2170
▁requ	-2171
▁ling	-2172
ca	-2173
▁So	-2174
▁unsure	-2175
▁unhelp	-2176
▁teaching	-2177
▁unha	-2178
▁dou	-2179
▁paths	-2180
▁prepared	-2181
▁darkness	-2182
▁onto	-2183
▁adventures	-2184
▁tonight	-2185
▁creatures	-2186
▁side	-2187
▁unhelpful	-2188
ution	-2189
▁separ	-2190
▁causing	-2191
ison	-2192
▁fat	-2193
▁dishes	-2194
▁middle	-2195
▁bag	-2196
▁business	-2197
▁conscious	-2198
▁wearing	-2199
omatic	-2200
▁hiding	-2201
irt	-2202
▁suc	-2203
▁head	-2204
rant	-2205
▁got	-2206
▁beach	-2207
▁loc	-2208
▁movies	-2209
▁smoke	-2210
▁contin	-2211
▁hanging	-2212
▁follow	-2213
▁acce	-2214
▁troubles	-2215
ho	-2216
▁odd	-2217
▁carefully	-2218
ton	-2219
▁growing	-2220
▁knowing	-2221
▁prog	-2222
▁worth	-2223
rer	-2224
▁openly	-2225
▁automatic	-2226
▁empty	-2227
ease	-2228
▁level	-2229
▁prices	-2230
▁dig	-2231
orry	-2232
lier	-2233
▁weigh	-2234
▁results	-2235
▁elastic	-2236
▁min	-2237
▁push	-2238
▁reco	-2239
▁conditions	-2240
▁boat	-2241
▁clea	-2242
▁wash	-2243
▁frequ	-2244
▁needed	-2245
▁earth	-2246
▁roof	-2247
▁Hopefully	-2248
▁swimming	-2249
▁stud	-2250
▁clearer	-2251
▁science	-2252
▁projects	-2253
▁pleas	-2254
▁shoes	-2255
▁dress	-2256
▁ask	-2257
▁thunder	-2258
ished	-2259
▁compan	-2260
olo	-2261
stood	-2262
▁hair	-2263
▁friendly	-2264
hip	-2265
▁against	-2266
▁dire	-2267
▁advice	-2268
ustom	-2269
▁forever	-2270
▁prevent	-2271
▁unhappy	-2272
▁sick	-2273
▁kids	-2274
▁general	-2275
cape	-2276
▁count	-2277
▁chees	-2278
▁perspect	-2279
erves	-2280
▁spirit	-2281
▁spark	-2282
ewel	-2283
▁city	-2284
▁custom	-2285
▁expectations	-2286
▁table	-2287
▁actually	-2288
▁jewel	-2289
▁separate	-2290
▁knot	-2291
▁reflection	-2292
▁group	-2293
▁fem	-2294
▁stom	-2295
▁provide	-2296
▁reach	-2297
▁par	-2298
▁stomach	-2299
▁lar	-2300
▁fire	-2301
▁equal	-2302
▁belief	-2303
▁pie	-2304
ute	-2305
▁roll	-2306
▁Together	-2307
▁healing	-2308
▁ve	-2309
fic	-2310
▁second	-2311
▁sal	-2312
▁rewarding	-2313
▁blooming	-2314
ential	-2315
▁views	-2316
▁cor	-2317
▁const	-2318
▁impul	-2319
▁kn	-2320
▁wav	-2321
▁misunder	-2322
▁bat	-2323
ources	-2324
▁technolo	-2325
▁seasons	-2326
▁overlook	-2327
▁facts	-2328
▁awful	-2329
▁done	-2330
▁responsibility	-2331
▁test	-2332
▁cheese	-2333
▁female	-2334
▁system	-2335
redi	-2336
▁blow	-2337
▁earlier	-2338
▁metho	-2339
usion	-2340
▁neigh	-2341
ner	-2342
▁collect	-2343
▁trip	-2344
▁dependent	-2345
▁receip	-2346
▁tiring	-2347
icer	-2348
▁send	-2349
gin	-2350
▁nicer	-2351
▁focused	-2352
▁suddenly	-2353
▁understood	-2354
▁nut	-2355
▁recipes	-2356
▁inviting	-2357
▁arm	-2358
▁hate	-2359
▁snee	-2360
▁orange	-2361
▁throw	-2362
▁deeper	-2363
▁pot	-2364
ery	-2365
▁stea	-2366
▁ball	-2367
▁usual	-2368
▁sitting	-2369
bjects	-2370
▁begin	-2371
▁friendships	-2372
▁technology	-2373
▁uncertainty	-2374
▁infl	-2375
▁accept	-2376
▁silly	-2377
▁opinions	-2378
▁shapes	-2379
▁boiling	-2380
▁showing	-2381
▁bene	-2382
▁tricks	-2383
▁ir	-2384
▁influ	-2385
▁attract	-2386
▁oppos	-2387
▁songs	-2388
▁wild	-2389
▁waves	-2390
▁increase	-2391
▁opposite	-2392
▁struggles	-2393
nings	-2394
▁differently	-2395
▁bond	-2396
▁active	-2397
▁liqu	-2398
▁useful	-2399
allel	-2400
▁parallel	-2401
▁escape	-2402
ates	-2403
▁falling	-2404
▁sorry	-2405
▁breathe	-2406
▁produce	-2407
angu	-2408
▁doubt	-2409
▁fixed	-2410
▁alm	-2411
▁fold	-2412
▁sock	-2413
▁hour	-2414
▁shopping	-2415
▁visiting	-2416
▁thoughtful	-2417
▁arri	-2418
▁uplifting	-2419
▁relationships	-2420
▁bread	-2421
▁misunderstand	-2422
▁decor	-2423
▁exist	-2424
▁least	-2425
▁langu	-2426
▁solve	-2427
▁types	-2428
▁purp	-2429
rateful	-2430
▁companies	-2431
▁hide	-2432
▁almost	-2433
▁probable	-2434
▁ins	-2435
eeping	-2436
▁recogn	-2437
▁unwel	-2438
▁starts	-2439
fits	-2440
ility	-2441
▁incl	-2442
▁relie	-2443
▁insects	-2444
▁informed	-2445
▁var	-2446
▁drain	-2447
▁confident	-2448
▁tran	-2449
dge	-2450
hood	-2451
▁wood	-2452
▁door	-2453
▁fully	-2454
▁dogs	-2455
▁mag	-2456
etizing	-2457
▁bel	-2458
▁drop	-2459
▁task	-2460
▁animal	-2461
ortun	-2462
▁main	-2463
▁troubling	-2464
▁lifts	-2465
▁adding	-2466
earning	-2467
▁tips	-2468
▁mindful	-2469
▁reasons	-2470
▁clar	-2471
▁transp	-2472
▁opportun	-2473
▁chal	-2474
▁wound	-2475
▁grateful	-2476
gs	-2477
▁ext	-2478
▁sear	-2479
▁unmot	-2480
▁suppose	-2481
▁frequent	-2482
▁judge	-2483
▁unwelcoming	-2484
▁pressure	-2485
ried	-2486
▁effectively	-2487
▁voices	-2488
▁note	-2489
▁mount	-2490
▁calmness	-2491
▁bab	-2492
▁communicate	-2493
▁valid	-2494
▁progress	-2495
▁bree	-2496
▁unmotivated	-2497
▁products	-2498
▁catch	-2499
▁unappetizing	-2500
▁remembering	-2501
▁finish	-2502
▁organized	-2503
▁transport	-2504
▁comple	-2505
▁hollow	-2506
▁his	-2507
▁approach	-2508
oth	-2509
▁bothering	-2510
▁floor	-2511
▁tray	-2512
▁starting	-2513
▁ra	-2514
▁myst	-2515
▁dreams	-2516
▁blan	-2517
▁stretch	-2518
▁reminding	-2519
ament	-2520
vert	-2521
▁distance	-2522
▁accidents	-2523
▁sailing	-2524
▁years	-2525
▁butter	-2526
▁compet	-2527
▁bird	-2528
▁ornament	-2529
▁beliefs	-2530
▁complex	-2531
gu	-2532
▁din	-2533
▁veget	-2534
▁seemed	-2535
▁treats	-2536
▁acts	-2537
▁liquid	-2538
▁clarity	-2539
comes	-2540
▁adapt	-2541
▁parts	-2542
▁impulse	-2543
▁bed	-2544
▁imagination	-2545
▁outcomes	-2546
▁horn	-2547
▁tax	-2548
▁overcome	-2549
▁advert	-2550
▁prose	-2551
▁del	-2552
▁stays	-2553
▁prior	-2554
uth	-2555
▁letter	-2556
▁lin	-2557
▁office	-2558
▁methods	-2559
▁poll	-2560
▁purpose	-2561
ever	-2562
▁ess	-2563
verse	-2564
▁confidence	-2565
▁cup	-2566
▁running	-2567
▁buy	-2568
▁caut	-2569
▁Every	-2570
▁cautious	-2571
▁fil	-2572
▁law	-2573
▁changed	-2574
▁oce	-2575
▁Clean	-2576
▁deserve	-2577
▁evening	-2578
▁Sun	-2579
▁goals	-2580
▁chilly	-2581
▁rice	-2582
▁breeze	-2583
▁designs	-2584
▁negativity	-2585
▁toys	-2586
▁cry	-2587
▁stit	-2588
tern	-2589
▁band	-2590
entions	-2591
▁bath	-2592
▁shop	-2593
ering	-2594
▁wall	-2595
▁happily	-2596
▁valuable	-2597
▁greatly	-2598
▁success	-2599
▁green	-2600
▁cost	-2601
▁lasting	-2602
▁truth	-2603
eath	-2604
▁flavor	-2605
▁topic	-2606
▁continue	-2607
land	-2608
fortun	-2609
▁comb	-2610
▁map	-2611
▁state	-2612
▁disappoint	-2613
▁crow	-2614
▁receipt	-2615
▁decision	-2616
▁neighbor	-2617
▁ing	-2618
▁essential	-2619
▁sail	-2620
urb	-2621
ables	-2622
▁ingredi	-2623
▁buildings	-2624
no	-2625
▁faces	-2626
▁hopes	-2627
▁challenge	-2628
▁allows	-2629
▁learned	-2630
▁vib	-2631
▁memory	-2632
▁possibil	-2633
▁smoothly	-2634
isf	-2635
atisf	-2636
▁self	-2637
▁belong	-2638
▁Cooking	-2639
▁constant	-2640
▁opportunities	-2641
▁bra	-2642
▁instru	-2643
▁advertise	-2644
▁treas	-2645
▁flight	-2646
▁fit	-2647
▁kinds	-2648
▁lights	-2649
▁wis	-2650
fill	-2651
rib	-2652
▁sug	-2653
▁minute	-2654
▁range	-2655
▁cult	-2656
ude	-2657
▁causes	-2658
▁discussion	-2659
ched	-2660
▁language	-2661
▁becomes	-2662
▁extra	-2663
▁vegetables	-2664
▁safely	-2665
bst	-2666
▁machines	-2667
▁crack	-2668
▁customers	-2669
▁Foc	-2670
▁Fee	-2671
▁clock	-2672
▁relief	-2673
▁married	-2674
thy	-2675
▁burst	-2676
▁worrying	-2677
▁friendship	-2678
▁emb	-2679
▁box	-2680
▁shut	-2681
▁order	-2682
▁above	-2683
chie	-2684
▁island	-2685
▁hoping	-2686
just	-2687
▁receive	-2688
▁unfortun	-2689
▁steam	-2690
▁propert	-2691
▁stamp	-2692
▁form	-2693
▁simpl	-2694
▁cree	-2695
▁baking	-2696
aged	-2697
▁disturb	-2698
▁Focusing	-2699
▁spreading	-2700
pping	-2701
▁chalk	-2702
▁chances	-2703
oat	-2704
▁human	-2705
▁hor	-2706
overed	-2707
▁Is	-2708
▁chec	-2709
ital	-2710
▁glass	-2711
▁ingredients	-2712
bbies	-2713
▁shirt	-2714
▁promot	-2715
▁positivity	-2716
▁pop	-2717
▁ph	-2718
▁allow	-2719
▁smaller	-2720
▁recent	-2721
▁speak	-2722
▁ens	-2723
▁pump	-2724
otton	-2725
▁leaving	-2726
iety	-2727
▁wool	-2728
▁faster	-2729
▁temp	-2730
▁bite	-2731
▁bran	-2732
▁dangers	-2733
▁discomfort	-2734
▁achie	-2735
▁gardens	-2736
▁tooth	-2737
▁satisf	-2738
▁objects	-2739
▁late	-2740
▁discoveries	-2741
▁argu	-2742
▁hobbies	-2743
essed	-2744
▁milk	-2745
▁harmon	-2746
erms	-2747
▁limit	-2748
▁digestion	-2749
▁country	-2750
▁stocking	-2751
▁berry	-2752
▁impro	-2753
ss	-2754
▁celebrat	-2755
▁char	-2756
▁clim	-2757
▁wine	-2758
cc	-2759
▁organiz	-2760
▁heavier	-2761
▁pet	-2762
▁harbor	-2763
▁gardening	-2764
▁card	-2765
▁eyes	-2766
▁turns	-2767
▁Feeling	-2768
ont	-2769
▁er	-2770
▁went	-2771
▁local	-2772
▁shift	-2773
▁sugar	-2774
ides	-2775
▁See	-2776
resh	-2777
▁job	-2778
ores	-2779
▁warmer	-2780
easing	-2781
▁due	-2782
▁resources	-2783
▁complic	-2784
▁confusion	-2785
▁improvements	-2786
▁commit	-2787
▁influence	-2788
▁save	-2789
▁cream	-2790
▁shade	-2791
▁shelf	-2792
▁pin	-2793
▁gone	-2794
velop	-2795
▁adjust	-2796
▁service	-2797
iving	-2798
▁debt	-2799
ready	-2800
ending	-2801
▁account	-2802
▁egg	-2803
▁rat	-2804
▁gold	-2805
▁signs	-2806
▁struct	-2807
▁Hi	-2808
▁cir	-2809
▁holding	-2810
▁boo	-2811
▁develop	-2812
▁dealing	-2813
ones	-2814
ycle	-2815
▁connecting	-2816
use	-2817
▁pollution	-2818
▁regularly	-2819
▁Sh	-2820
▁unb	-2821
▁profit	-2822
▁round	-2823
▁answers	-2824
▁meetings	-2825
▁ring	-2826
▁humor	-2827
line	-2828
▁pret	-2829
▁spook	-2830
▁dest	-2831
▁kiss	-2832
▁soap	-2833
▁Walking	-2834
▁dish	-2835
▁cotton	-2836
ep	-2837
▁spooky	-2838
▁playful	-2839
▁leaders	-2840
▁inventions	-2841
▁perform	-2842
eable	-2843
▁Sp	-2844
▁berries	-2845
▁ter	-2846
▁coal	-2847
ushing	-2848
▁unpleasing	-2849
▁beautifully	-2850
▁took	-2851
cy	-2852
▁exchange	-2853
▁metal	-2854
▁frighten	-2855
vis	-2856
▁levels	-2857
▁kick	-2858
▁harmony	-2859
iction	-2860
▁affecting	-2861
▁possibilities	-2862
▁cra	-2863
▁linger	-2864
▁flag	-2865
▁type	-2866
▁fixing	-2867
▁interest	-2868
▁encour	-2869
▁pattern	-2870
▁deserves	-2871
ences	-2872
▁examp	-2873
▁spong	-2874
▁kinder	-2875
▁courage	-2876
▁valued	-2877
eady	-2878
▁charact	-2879
▁hosp	-2880
▁crowd	-2881
▁talks	-2882
▁routine	-2883
▁wonders	-2884
old	-2885
▁eye	-2886
▁ap	-2887
▁err	-2888
▁germs	-2889
▁lifting	-2890
▁spent	-2891
▁obs	-2892
▁afterward	-2893
eday	-2894
▁impress	-2895
▁someday	-2896
▁shocking	-2897
▁embr	-2898
inking	-2899
ruction	-2900
orable	-2901
▁complicated	-2902
▁styles	-2903
▁achieve	-2904
▁washing	-2905
▁ocean	-2906
afe	-2907
erc	-2908
▁sheep	-2909
▁role	-2910
▁hy	-2911
▁suff	-2912
▁ray	-2913
▁brightens	-2914
▁calmer	-2915
▁vibrant	-2916
▁unfortunate	-2917
▁unst	-2918
althy	-2919
up	-2920
zz	-2921
urance	-2922
▁write	-2923
rible	-2924
▁competition	-2925
▁direction	-2926
▁Fear	-2927
od	-2928
anced	-2929
orter	-2930
▁streets	-2931
▁secrets	-2932
▁occ	-2933
▁stars	-2934
▁months	-2935
cil	-2936
cles	-2937
▁answer	-2938
▁oil	-2939
▁ensure	-2940
▁street	-2941
▁neighborhood	-2942
▁apart	-2943
ably	-2944
estions	-2945
▁journeys	-2946
▁creep	-2947
▁celebrate	-2948
▁soil	-2949
▁unsafe	-2950
▁gathering	-2951
▁meas	-2952
▁exerc	-2953
▁rains	-2954
ists	-2955
▁routines	-2956
▁afterno	-2957
iar	-2958
▁questions	-2959
▁Cleaning	-2960
▁gray	-2961
▁hopefully	-2962
aments	-2963
▁tick	-2964
▁unhealthy	-2965
▁voice	-2966
▁rule	-2967
▁ship	-2968
▁stem	-2969
▁linen	-2970
▁trade	-2971
▁flower	-2972
▁reactions	-2973
ins	-2974
lear	-2975
▁paste	-2976
▁includ	-2977
▁mountain	-2978
oosing	-2979
▁risks	-2980
▁fiction	-2981
▁silver	-2982
rying	-2983
▁uses	-2984
▁worm	-2985
▁subst	-2986
▁ornaments	-2987
▁shiny	-2988
eration	-2989
▁salt	-2990
▁style	-2991
▁sunset	-2992
▁ba	-2993
aced	-2994
▁hurts	-2995
▁thrill	-2996
▁ink	-2997
iny	-2998
▁baby	-2999
outh	-3000
▁mine	-3001
▁polish	-3002
▁maintain	-3003
▁crush	-3004
▁avail	-3005
cial	-3006
ounts	-3007
▁holds	-3008
▁text	-3009
issors	-3010
▁pencil	-3011
▁sneeze	-3012
▁rid	-3013
▁nights	-3014
▁braver	-3015
▁caused	-3016
▁mouth	-3017
▁connects	-3018
▁nicely	-3019
▁enjoyment	-3020
▁cookies	-3021
▁With	-3022
▁crime	-3023
vision	-3024
▁repair	-3025
▁scissors	-3026
▁memorable	-3027
atching	-3028
▁monkey	-3029
▁resting	-3030
▁insurance	-3031
▁board	-3032
▁Wr	-3033
▁tiny	-3034
▁cush	-3035
ocol	-3036
▁hole	-3037
nderstand	-3038
▁cloth	-3039
▁chaos	-3040
▁manager	-3041
▁pun	-3042
▁meat	-3043
▁ves	-3044
▁magical	-3045
▁chatting	-3046
ousers	-3047
icking	-3048
▁vessel	-3049
▁conflic	-3050
▁station	-3051
▁ups	-3052
▁expressing	-3053
▁repr	-3054
▁relig	-3055
▁Writing	-3056
▁property	-3057
umn	-3058
▁luck	-3059
▁thrive	-3060
▁size	-3061
▁trousers	-3062
▁perspective	-3063
▁bothers	-3064
▁benefits	-3065
eel	-3066
▁sli	-3067
ocolate	-3068
▁available	-3069
▁downs	-3070
▁breaths	-3071
ord	-3072
▁Sm	-3073
▁ket	-3074
▁struggling	-3075
▁death	-3076
▁breathing	-3077
uff	-3078
▁finished	-3079
▁discovering	-3080
gi	-3081
▁prin	-3082
▁front	-3083
▁early	-3084
▁race	-3085
ishment	-3086
▁interests	-3087
▁students	-3088
▁pick	-3089
▁birth	-3090
▁capt	-3091
▁cares	-3092
▁cough	-3093
▁concerning	-3094
ired	-3095
▁mindset	-3096
▁supportive	-3097
▁material	-3098
▁afternoon	-3099
put	-3100
▁nu	-3101
▁ruined	-3102
▁already	-3103
▁Should	-3104
▁drawing	-3105
▁patterns	-3106
opper	-3107
▁welcoming	-3108
▁price	-3109
▁judg	-3110
▁delays	-3111
▁forg	-3112
nderstanding	-3113
▁chest	-3114
▁Seeking	-3115
▁case	-3116
▁cam	-3117
▁rhy	-3118
mbers	-3119
▁machine	-3120
▁indust	-3121
▁unsteady	-3122
▁blanket	-3123
▁bell	-3124
▁camer	-3125
▁class	-3126
▁rhyth	-3127
▁likely	-3128
▁decorations	-3129
▁large	-3130
▁uplift	-3131
▁harmful	-3132
val	-3133
▁auth	-3134
▁chur	-3135
▁plate	-3136
ctive	-3137
▁amount	-3138
▁silk	-3139
▁turned	-3140
▁goal	-3141
port	-3142
▁disru	-3143
unch	-3144
▁ful	-3145
aving	-3146
▁decide	-3147
▁fing	-3148
▁drawer	-3149
▁fulfill	-3150
▁spots	-3151
vas	-3152
vern	-3153
▁canvas	-3154
▁govern	-3155
▁indoor	-3156
▁kettle	-3157
▁bear	-3158
▁pretty	-3159
▁promote	-3160
▁requires	-3161
▁bought	-3162
▁strengt	-3163
▁cart	-3164
▁frightened	-3165
iled	-3166
▁harsh	-3167
▁within	-3168
aring	-3169
▁Well	-3170
iding	-3171
aughter	-3172
▁Trying	-3173
icing	-3174
▁dinner	-3175
▁terrible	-3176
▁autumn	-3177
▁int	-3178
▁expert	-3179
▁forgot	-3180
▁explain	-3181
▁corn	-3182
▁cared	-3183
▁shame	-3184
itary	-3185
▁arch	-3186
▁belongings	-3187
ctly	-3188
▁word	-3189
▁trend	-3190
▁passes	-3191
▁inten	-3192
hanging	-3193
▁copper	-3194
▁offers	-3195
▁gatherings	-3196
▁attit	-3197
orts	-3198
▁foot	-3199
▁iron	-3200
▁online	-3201
▁church	-3202
▁distant	-3203
▁strengthen	-3204
▁surf	-3205
▁desire	-3206
new	-3207
▁brightness	-3208
▁spill	-3209
▁emotion	-3210
▁government	-3211
▁committ	-3212
▁organization	-3213
▁mark	-3214
▁nation	-3215
▁various	-3216
▁perfectly	-3217
▁respectful	-3218
▁cred	-3219
▁recipe	-3220
▁singing	-3221
▁soo	-3222
▁wants	-3223
▁bottle	-3224
▁cultures	-3225
▁arrive	-3226
▁soothing	-3227
▁collar	-3228
▁steel	-3229
▁disappear	-3230
▁heaviness	-3231
▁supporting	-3232
▁hours	-3233
place	-3234
▁teaches	-3235
▁bonds	-3236
▁neat	-3237
▁turning	-3238
▁seriously	-3239
▁ride	-3240
▁ignored	-3241
▁wheel	-3242
▁credit	-3243
▁clothing	-3244
ffee	-3245
▁Watching	-3246
▁chocolate	-3247
▁gri	-3248
ific	-3249
▁risk	-3250
▁intense	-3251
eak	-3252
▁lying	-3253
▁started	-3254
▁Making	-3255
▁stressed	-3256
▁condition	-3257
▁differences	-3258
▁remain	-3259
ising	-3260
▁line	-3261
▁Eating	-3262
▁flame	-3263
▁motiv	-3264
▁piece	-3265
ency	-3266
▁track	-3267
▁carrying	-3268
▁messages	-3269
ered	-3270
▁military	-3271
▁represent	-3272
eading	-3273
how	-3274
▁smash	-3275
▁camera	-3276
▁industry	-3277
▁generations	-3278
▁lock	-3279
▁unne	-3280
fter	-3281
▁painful	-3282
▁somehow	-3283
▁affected	-3284
▁horse	-3285
▁talked	-3286
▁punishment	-3287
▁whenever	-3288
▁coffee	-3289
▁mel	-3290
ience	-3291
▁checking	-3292
▁gar	-3293
▁pock	-3294
▁boost	-3295
▁rhythm	-3296
▁temper	-3297
▁letting	-3298
lies	-3299
▁throat	-3300
▁rev	-3301
▁pleasures	-3302
▁brought	-3303
▁carri	-3304
▁recognize	-3305
▁Expl	-3306
▁means	-3307
▁Exploring	-3308
▁perspectives	-3309
▁imaginations	-3310
hear	-3311
▁rely	-3312
▁basket	-3313
ody	-3314
▁mud	-3315
▁He	-3316
▁worms	-3317
▁brain	-3318
▁engine	-3319
▁destruction	-3320
▁puzz	-3321
▁Having	-3322
▁fog	-3323
▁wax	-3324
▁alert	-3325
▁slope	-3326
▁environments	-3327
rit	-3328
▁practices	-3329
hearten	-3330
▁dishearten	-3331
▁brass	-3332
▁knife	-3333
▁rising	-3334
▁searching	-3335
▁patient	-3336
▁unim	-3337
▁hol	-3338
▁roads	-3339
▁pleasure	-3340
▁committee	-3341
onnect	-3342
▁enter	-3343
▁socks	-3344
▁sights	-3345
▁eventually	-3346
▁raise	-3347
▁author	-3348
▁unnecessary	-3349
▁cop	-3350
▁unimport	-3351
▁rubb	-3352
▁party	-3353
▁drinking	-3354
▁supplies	-3355
▁worst	-3356
▁speaking	-3357
▁unimportant	-3358
▁preci	-3359
▁precious	-3360
▁Remembering	-3361
▁closely	-3362
▁larger	-3363
▁thread	-3364
aching	-3365
▁costs	-3366
▁owners	-3367
▁lots	-3368
▁doors	-3369
▁reaction	-3370
aurant	-3371
▁Right	-3372
ross	-3373
▁restaurant	-3374
ative	-3375
▁slip	-3376
▁blood	-3377
▁messes	-3378
cast	-3379
▁Your	-3380
▁edge	-3381
▁across	-3382
▁respond	-3383
▁pi	-3384
putting	-3385
▁darker	-3386
ike	-3387
▁ends	-3388
▁disheartening	-3389
▁shoe	-3390
▁considerate	-3391
▁compared	-3392
▁stitch	-3393
uring	-3394
▁rail	-3395
▁improvement	-3396
▁call	-3397
▁social	-3398
▁sponge	-3399
▁reminded	-3400
▁plane	-3401
▁cycle	-3402
▁caught	-3403
▁Su	-3404
▁cand	-3405
▁wisely	-3406
▁freely	-3407
▁trains	-3408
▁unclear	-3409
▁finds	-3410
▁giving	-3411
▁becoming	-3412
▁tail	-3413
▁brother	-3414
▁manageable	-3415
▁fig	-3416
▁simpler	-3417
▁religion	-3418
▁Fresh	-3419
▁priorit	-3420
▁spoon	-3421
▁fade	-3422
▁fur	-3423
▁anxiety	-3424
▁confused	-3425
▁operation	-3426
▁stage	-3427
▁scar	-3428
▁phot	-3429
ancing	-3430
feren	-3431
▁hammer	-3432
body	-3433
▁amazed	-3434
▁example	-3435
▁popular	-3436
▁businesses	-3437
ric	-3438
▁An	-3439
osity	-3440
▁cushion	-3441
▁worked	-3442
▁Wor	-3443
▁tend	-3444
▁apple	-3445
▁pieces	-3446
▁drive	-3447
▁picnics	-3448
overy	-3449
▁En	-3450
▁buck	-3451
▁chain	-3452
▁workers	-3453
▁leading	-3454
ridge	-3455
▁gently	-3456
mpt	-3457
▁bugs	-3458
▁systems	-3459
▁Sim	-3460
▁brush	-3461
▁rub	-3462
lever	-3463
▁throughout	-3464
▁message	-3465
▁habit	-3466
▁clever	-3467
▁If	-3468
▁mother	-3469
▁values	-3470
▁gift	-3471
arming	-3472
▁warning	-3473
▁Ch	-3474
▁craft	-3475
▁tee	-3476
▁preferen	-3477
▁instrument	-3478
yc	-3479
ense	-3480
▁tens	-3481
▁snakes	-3482
▁reality	-3483
▁cork	-3484
▁embrace	-3485
▁page	-3486
▁impacts	-3487
▁division	-3488
fast	-3489
▁brick	-3490
▁disease	-3491
▁amid	-3492
▁teeth	-3493
▁characters	-3494
▁suggestion	-3495
sequ	-3496
▁net	-3497
▁taken	-3498
▁force	-3499
▁seeds	-3500
▁behaviors	-3501
aiting	-3502
▁consequ	-3503
▁curtain	-3504
▁mornings	-3505
▁smiling	-3506
▁engaging	-3507
▁understands	-3508
irl	-3509
▁based	-3510
▁single	-3511
▁signific	-3512
▁hoped	-3513
▁address	-3514
▁knew	-3515
▁received	-3516
▁reminder	-3517
▁Waiting	-3518
▁surv	-3519
▁breaking	-3520
▁disappointment	-3521
▁neck	-3522
▁choosing	-3523
▁hospital	-3524
▁feet	-3525
▁planting	-3526
▁select	-3527
▁inspired	-3528
ability	-3529
▁stone	-3530
▁consequences	-3531
▁tong	-3532
▁somewhere	-3533
▁unth	-3534
▁pipe	-3535
adays	-3536
▁watched	-3537
▁nowadays	-3538
▁treasures	-3539
cknow	-3540
▁corre	-3541
▁stormy	-3542
▁son	-3543
▁army	-3544
▁organize	-3545
▁structure	-3546
oups	-3547
▁cow	-3548
▁bucket	-3549
▁powder	-3550
▁breakfast	-3551
▁nobody	-3552
▁discovery	-3553
▁chase	-3554
anted	-3555
▁hygi	-3556
ounter	-3557
▁protest	-3558
▁springtime	-3559
bage	-3560
usement	-3561
atus	-3562
▁fork	-3563
ashion	-3564
▁garbage	-3565
▁counts	-3566
▁films	-3567
▁setting	-3568
▁interact	-3569
▁snake	-3570
▁inspiring	-3571
▁preferences	-3572
▁sist	-3573
▁faced	-3574
▁porter	-3575
▁carriage	-3576
ately	-3577
▁badly	-3578
▁poison	-3579
▁lake	-3580
▁familiar	-3581
▁abs	-3582
▁fields	-3583
▁contrib	-3584
▁amusement	-3585
ddy	-3586
▁grain	-3587
▁compar	-3588
▁crowded	-3589
▁authority	-3590
▁fine	-3591
▁hygiene	-3592
▁windows	-3593
▁apples	-3594
▁ent	-3595
hered	-3596
▁wasted	-3597
▁existence	-3598
▁advertisements	-3599
zing	-3600
▁charm	-3601
▁stamps	-3602
▁unwise	-3603
▁improving	-3604
▁basin	-3605
gies	-3606
▁Tea	-3607
▁climb	-3608
▁exactly	-3609
▁including	-3610
▁gun	-3611
▁acting	-3612
▁sister	-3613
▁calmly	-3614
▁Working	-3615
▁wave	-3616
▁specific	-3617
rier	-3618
▁disturbing	-3619
▁tension	-3620
▁helped	-3621
▁poorly	-3622
▁fulfilling	-3623
uild	-3624
▁boot	-3625
▁lunch	-3626
▁Reading	-3627
▁girl	-3628
aratus	-3629
▁apparatus	-3630
ging	-3631
▁muddy	-3632
▁owner	-3633
▁covered	-3634
▁fishing	-3635
▁outlook	-3636
▁approval	-3637
▁prioritize	-3638
▁trad	-3639
▁prison	-3640
▁beginnings	-3641
▁regard	-3642
▁neglect	-3643
▁treated	-3644
▁cows	-3645
▁frame	-3646
▁reasonable	-3647
back	-3648
▁came	-3649
▁significant	-3650
▁atte	-3651
▁appearance	-3652
▁development	-3653
acking	-3654
▁payment	-3655
▁reaching	-3656
ient	-3657
▁seat	-3658
▁Mus	-3659
▁fab	-3660
▁experienc	-3661
▁toe	-3662
▁jobs	-3663
▁circle	-3664
▁cars	-3665
laying	-3666
usting	-3667
▁quieter	-3668
▁seeking	-3669
▁nav	-3670
▁knows	-3671
▁Music	-3672
▁navig	-3673
▁plays	-3674
▁print	-3675
▁number	-3676
ycling	-3677
▁stores	-3678
▁button	-3679
▁damaged	-3680
▁north	-3681
▁advertisement	-3682
otic	-3683
istant	-3684
▁upd	-3685
▁serve	-3686
▁ticket	-3687
▁motivated	-3688
▁relaxation	-3689
▁fant	-3690
▁grip	-3691
▁name	-3692
▁wom	-3693
▁Simple	-3694
▁curiosity	-3695
▁accident	-3696
ats	-3697
orses	-3698
▁stops	-3699
▁enjoys	-3700
▁thrilling	-3701
flection	-3702
▁silence	-3703
way	-3704
▁entertain	-3705
▁chaotic	-3706
▁reminders	-3707
▁feed	-3708
▁skirt	-3709
▁bud	-3710
▁artists	-3711
▁daughter	-3712
▁dance	-3713
▁loves	-3714
▁budget	-3715
▁secretary	-3716
▁mysterious	-3717
▁Help	-3718
▁laws	-3719
▁Com	-3720
▁picking	-3721
▁tra	-3722
▁burdens	-3723
▁realized	-3724
▁shock	-3725
kept	-3726
ication	-3727
etting	-3728
▁sandw	-3729
▁branches	-3730
▁smoother	-3731
▁suggestions	-3732
▁acid	-3733
▁outcome	-3734
▁bake	-3735
orrow	-3736
▁detail	-3737
▁Helping	-3738
▁treasure	-3739
▁irrit	-3740
▁skill	-3741
▁appealing	-3742
apped	-3743
▁distractions	-3744
▁Creat	-3745
▁fashion	-3746
▁resolve	-3747
▁branch	-3748
▁partic	-3749
▁blowing	-3750
▁nuts	-3751
▁wire	-3752
▁tales	-3753
▁puzzling	-3754
▁measure	-3755
▁violence	-3756
▁Happ	-3757
getic	-3758
▁gain	-3759
▁vide	-3760
▁tongue	-3761
▁endless	-3762
iqu	-3763
▁cord	-3764
▁search	-3765
▁impressive	-3766
▁mistake	-3767
▁acknow	-3768
▁interru	-3769
▁Sunshine	-3770
▁lingers	-3771
▁members	-3772
ird	-3773
ground	-3774
▁balanced	-3775
▁fantastic	-3776
▁selection	-3777
▁lur	-3778
▁arise	-3779
▁honesty	-3780
▁grows	-3781
▁attack	-3782
▁glove	-3783
▁expans	-3784
bby	-3785
eries	-3786
ither	-3787
▁knee	-3788
▁rich	-3789
▁moves	-3790
▁stuff	-3791
▁concl	-3792
▁falls	-3793
▁arrives	-3794
utter	-3795
eaking	-3796
▁limits	-3797
hedu	-3798
indness	-3799
▁corner	-3800
▁pocket	-3801
▁pushing	-3802
▁boring	-3803
▁angrier	-3804
▁servant	-3805
▁laughing	-3806
▁base	-3807
▁hobby	-3808
▁taxes	-3809
▁pres	-3810
▁factors	-3811
▁opening	-3812
▁leg	-3813
oking	-3814
▁folding	-3815
▁covering	-3816
▁expansion	-3817
▁wit	-3818
▁colder	-3819
▁Small	-3820
▁loudly	-3821
▁cutting	-3822
▁putting	-3823
ief	-3824
▁unit	-3825
▁cooler	-3826
▁exercise	-3827
life	-3828
▁eer	-3829
▁appreciating	-3830
oses	-3831
▁slipp	-3832
▁nerves	-3833
▁disrupt	-3834
▁repairs	-3835
▁spoiled	-3836
▁observ	-3837
▁Reflection	-3838
▁ruining	-3839
▁won	-3840
▁reli	-3841
ashing	-3842
▁eerie	-3843
▁navigate	-3844
▁fighting	-3845
▁wanting	-3846
iest	-3847
▁mass	-3848
▁broke	-3849
▁occas	-3850
▁stones	-3851
▁doct	-3852
hedule	-3853
har	-3854
▁nose	-3855
▁distrib	-3856
▁Speaking	-3857
▁alarming	-3858
▁noticing	-3859
▁upcoming	-3860
▁sour	-3861
▁enhan	-3862
▁weird	-3863
▁groups	-3864
▁needle	-3865
▁emotional	-3866
▁respected	-3867
▁encouraging	-3868
▁fol	-3869
▁Time	-3870
▁opinion	-3871
▁Ass	-3872
▁trends	-3873
▁Assistant	-3874
▁shel	-3875
▁behave	-3876
▁unthought	-3877
▁protecting	-3878
unning	-3879
▁folks	-3880
▁Can	-3881
assion	-3882
▁chief	-3883
istening	-3884
▁texture	-3885
▁recycling	-3886
ply	-3887
▁sell	-3888
▁lurking	-3889
▁fail	-3890
▁errors	-3891
▁simply	-3892
essert	-3893
▁heavily	-3894
▁When	-3895
▁conflict	-3896
▁position	-3897
cher	-3898
▁cats	-3899
▁Sunny	-3900
▁passing	-3901
▁trapped	-3902
▁stretching	-3903
▁witness	-3904
▁visitors	-3905
▁invention	-3906
▁comparison	-3907
▁eggs	-3908
▁brains	-3909
▁ec	-3910
▁hook	-3911
▁kept	-3912
▁scen	-3913
▁weak	-3914
▁unwind	-3915
aren	-3916
▁walls	-3917
▁universe	-3918
▁images	-3919
▁refreshed	-3920
ites	-3921
yond	-3922
ination	-3923
▁beyond	-3924
▁ending	-3925
▁schedule	-3926
▁practicing	-3927
▁rechar	-3928
▁exha	-3929
▁dessert	-3930
og	-3931
▁fills	-3932
▁strongly	-3933
▁satisfying	-3934
▁plastic	-3935
▁distribution	-3936
▁coop	-3937
▁relation	-3938
▁notes	-3939
▁quietly	-3940
▁succ	-3941
▁flies	-3942
▁horses	-3943
▁techniqu	-3944
▁attraction	-3945
▁unthoughtful	-3946
▁motion	-3947
owers	-3948
▁said	-3949
▁rod	-3950
▁greater	-3951
▁arguments	-3952
▁finan	-3953
▁visited	-3954
▁compassion	-3955
ctions	-3956
▁holid	-3957
▁energetic	-3958
▁forgotten	-3959
▁bags	-3960
▁ability	-3961
▁sources	-3962
▁ignoring	-3963
▁improves	-3964
▁peacefully	-3965
▁Star	-3966
▁whip	-3967
erving	-3968
▁predict	-3969
▁discovered	-3970
ls	-3971
▁juice	-3972
▁scale	-3973
▁kindly	-3974
▁suffering	-3975
▁After	-3976
▁basic	-3977
▁meant	-3978
▁dem	-3979
▁didn	-3980
▁reflects	-3981
▁productive	-3982
itive	-3983
▁further	-3984
▁burning	-3985
▁rolling	-3986
▁blade	-3987
▁spilled	-3988
▁substances	-3989
▁magic	-3990
▁trans	-3991
▁scents	-3992
▁annoyed	-3993
▁addition	-3994
▁supported	-3995
ducing	-3996
▁release	-3997
ib	-3998
▁survive	-3999
▁succeed	-4000
▁touching	-4001
aries	-4002
▁outing	-4003
ften	-4004
ible	-4005
▁forms	-4006
▁buying	-4007
▁encounter	-4008
▁risky	-4009
▁anyway	-4010
▁considering	-4011
▁Sw	-4012
ners	-4013
▁copy	-4014
ouraging	-4015
▁financial	-4016
ied	-4017
▁verse	-4018
▁recharge	-4019
▁damp	-4020
edom	-4021
▁surface	-4022
▁missed	-4023
▁Starting	-4024
▁traveling	-4025
▁Creating	-4026
▁Thinking	-4027
▁Sn	-4028
▁cru	-4029
▁scenes	-4030
▁capture	-4031
▁argument	-4032
▁theory	-4033
▁content	-4034
▁attitude	-4035
sibly	-4036
▁blank	-4037
▁negatively	-4038
ret	-4039
enery	-4040
gging	-4041
▁fell	-4042
▁record	-4043
▁flash	-4044
▁updates	-4045
▁freedom	-4046
▁muscles	-4047
▁pulling	-4048
ights	-4049
▁blows	-4050
▁substance	-4051
▁crafts	-4052
▁teacher	-4053
▁agreement	-4054
▁Everyone	-4055
▁slippery	-4056
ided	-4057
▁fad	-4058
lines	-4059
▁allowing	-4060
▁reliable	-4061
▁od	-4062
▁sex	-4063
▁curve	-4064
▁played	-4065
▁difficulties	-4066
iches	-4067
▁effic	-4068
▁ord	-4069
▁Even	-4070
▁displ	-4071
▁climate	-4072
▁depends	-4073
free	-4074
▁opens	-4075
▁concert	-4076
▁hurtful	-4077
▁Str	-4078
▁feedback	-4079
▁honestly	-4080
▁techniques	-4081
fy	-4082
hanges	-4083
▁replace	-4084
▁demand	-4085
▁hurting	-4086
▁collection	-4087
unting	-4088
▁error	-4089
▁resil	-4090
pts	-4091
umb	-4092
▁complain	-4093
▁unappreci	-4094
▁encourages	-4095
▁wasting	-4096
▁rise	-4097
inary	-4098
▁stri	-4099
▁helpless	-4100
▁sometime	-4101
▁Facing	-4102
▁fairness	-4103
▁sleeping	-4104
▁bone	-4105
▁strate	-4106
▁tendency	-4107
▁sandwiches	-4108
▁figure	-4109
▁shadow	-4110
▁meanings	-4111
▁Each	-4112
▁suffer	-4113
▁letters	-4114
▁woman	-4115
▁rivers	-4116
▁sadder	-4117
▁movement	-4118
▁representative	-4119
▁deg	-4120
▁brake	-4121
ber	-4122
▁amidst	-4123
▁forecast	-4124
▁exhausting	-4125
▁itself	-4126
▁photos	-4127
▁managing	-4128
▁overl	-4129
uilding	-4130
▁babies	-4131
▁energ	-4132
▁occur	-4133
ram	-4134
▁rate	-4135
▁darkest	-4136
▁stitching	-4137
wing	-4138
▁untr	-4139
▁attempt	-4140
▁drivers	-4141
▁hig	-4142
▁engaged	-4143
▁unappreciated	-4144
mer	-4145
▁Thanks	-4146
▁mystery	-4147
▁creepy	-4148
▁spills	-4149
▁Anim	-4150
▁tasted	-4151
▁training	-4152
▁structures	-4153
▁movements	-4154
▁inj	-4155
▁visits	-4156
▁spreads	-4157
▁flashlight	-4158
oll	-4159
▁traffic	-4160
▁lands	-4161
▁performance	-4162
▁ass	-4163
ushed	-4164
▁rare	-4165
▁benefit	-4166
▁services	-4167
olding	-4168
▁finger	-4169
▁jewels	-4170
▁scenery	-4171
▁schools	-4172
ocked	-4173
▁paren	-4174
▁pile	-4175
▁Enjoy	-4176
▁nails	-4177
ainting	-4178
▁unease	-4179
▁variety	-4180
▁conclusion	-4181
▁roots	-4182
▁digging	-4183
▁correctly	-4184
▁ago	-4185
▁Changing	-4186
▁absolutely	-4187
othered	-4188
lex	-4189
ops	-4190
nger	-4191
▁transform	-4192
▁unbothered	-4193
▁item	-4194
orting	-4195
▁pasta	-4196
▁either	-4197
▁sports	-4198
▁craw	-4199
▁entire	-4200
▁mountains	-4201
▁Ear	-4202
▁seed	-4203
▁scene	-4204
▁paying	-4205
▁nail	-4206
▁speed	-4207
▁fingers	-4208
ia	-4209
cri	-4210
erim	-4211
▁enhance	-4212
▁recover	-4213
▁priority	-4214
▁unre	-4215
▁stains	-4216
▁Animals	-4217
▁cute	-4218
▁unexc	-4219
pending	-4220
▁higher	-4221
▁frustrations	-4222
tles	-4223
▁bar	-4224
▁Does	-4225
▁proud	-4226
▁papers	-4227
▁include	-4228
▁temperature	-4229
mbol	-4230
▁Mem	-4231
▁added	-4232
▁positives	-4233
▁tot	-4234
▁ruins	-4235
▁spoil	-4236
▁disappointed	-4237
▁leaf	-4238
▁ben	-4239
▁disres	-4240
▁wildlife	-4241
▁adjustment	-4242
▁organizing	-4243
oles	-4244
▁jack	-4245
▁tense	-4246
▁Spending	-4247
▁bothersome	-4248
▁lip	-4249
itals	-4250
▁hides	-4251
▁thumb	-4252
▁symbol	-4253
▁cleaned	-4254
▁crucial	-4255
▁anywhere	-4256
af	-4257
▁huge	-4258
▁Memories	-4259
▁handling	-4260
▁overlooked	-4261
ompl	-4262
ession	-4263
▁instruments	-4264
▁statement	-4265
▁inju	-4266
▁weeks	-4267
▁humans	-4268
▁experim	-4269
▁finally	-4270
▁surrounds	-4271
▁unpr	-4272
▁reducing	-4273
▁Friend	-4274
▁littering	-4275
▁film	-4276
▁rude	-4277
▁reflective	-4278
icy	-4279
▁shops	-4280
▁invite	-4281
▁senses	-4282
▁ele	-4283
▁request	-4284
▁depending	-4285
▁celebrations	-4286
▁Earth	-4287
▁chill	-4288
▁uninter	-4289
▁customer	-4290
▁z	-4291
▁dining	-4292
▁farmers	-4293
▁refresh	-4294
mun	-4295
ensive	-4296
▁vital	-4297
ossible	-4298
▁smoking	-4299
▁Fl	-4300
ted	-4301
ping	-4302
▁piling	-4303
▁childhood	-4304
▁disag	-4305
▁wings	-4306
▁Teaching	-4307
▁afterwards	-4308
▁impossible	-4309
▁frag	-4310
▁smallest	-4311
▁Wow	-4312
▁media	-4313
▁needing	-4314
▁weekends	-4315
▁gen	-4316
▁unaw	-4317
▁ordinary	-4318
▁fest	-4319
▁conflicts	-4320
▁countries	-4321
▁ric	-4322
issing	-4323
▁ble	-4324
▁Rain	-4325
oating	-4326
▁richer	-4327
▁remove	-4328
▁Che	-4329
▁twists	-4330
▁caf	-4331
▁yard	-4332
ilities	-4333
▁riding	-4334
mon	-4335
▁Supp	-4336
▁preparing	-4337
▁roles	-4338
▁checked	-4339
▁closed	-4340
▁repeat	-4341
▁regarding	-4342
▁delay	-4343
▁increas	-4344
▁loneliness	-4345
▁surprisingly	-4346
▁wouldn	-4347
▁blankets	-4348
▁soot	-4349
▁threat	-4350
▁boats	-4351
▁guard	-4352
▁disagree	-4353
action	-4354
▁trips	-4355
▁tasting	-4356
▁disrespect	-4357
▁farms	-4358
▁floating	-4359
▁motivation	-4360
▁directly	-4361
ival	-4362
iking	-4363
▁bound	-4364
▁older	-4365
▁treatment	-4366
▁adm	-4367
▁alright	-4368
▁monkeys	-4369
lan	-4370
organ	-4371
▁planes	-4372
▁rewards	-4373
▁chair	-4374
▁For	-4375
▁Anger	-4376
▁jumping	-4377
ges	-4378
anges	-4379
pting	-4380
▁tang	-4381
▁dropp	-4382
▁saving	-4383
▁glo	-4384
dding	-4385
▁fridge	-4386
▁program	-4387
▁totally	-4388
▁slipping	-4389
▁subjects	-4390
▁concerned	-4391
▁boundaries	-4392
iced	-4393
▁builds	-4394
▁soothe	-4395
▁response	-4396
▁abilities	-4397
▁hospitals	-4398
▁collecting	-4399
udes	-4400
earing	-4401
▁woods	-4402
▁Commun	-4403
▁opened	-4404
▁require	-4405
▁rubbish	-4406
verall	-4407
lanning	-4408
▁hit	-4409
▁rush	-4410
▁favorites	-4411
▁judgment	-4412
amil	-4413
▁dre	-4414
▁degree	-4415
▁fabric	-4416
▁lines	-4417
sidered	-4418
▁measures	-4419
▁textures	-4420
▁carelessly	-4421
▁block	-4422
▁unbal	-4423
▁worlds	-4424
▁potential	-4425
ptions	-4426
▁fewer	-4427
▁likes	-4428
▁nerve	-4429
▁salad	-4430
▁wondering	-4431
▁accidentally	-4432
man	-4433
▁pack	-4434
▁scre	-4435
▁empat	-4436
▁saying	-4437
▁clutter	-4438
▁fa	-4439
▁shout	-4440
▁surrounded	-4441
lish	-4442
▁emer	-4443
▁appears	-4444
mend	-4445
▁rats	-4446
▁jokes	-4447
▁doctor	-4448
▁forest	-4449
▁promises	-4450
▁attitudes	-4451
▁continues	-4452
▁considered	-4453
▁appreciation	-4454
▁uninteresting	-4455
▁Ar	-4456
ball	-4457
▁feat	-4458
▁dropped	-4459
▁stunning	-4460
ilt	-4461
▁bike	-4462
▁crafting	-4463
▁video	-4464
▁themes	-4465
▁chats	-4466
mind	-4467
▁raising	-4468
▁tightly	-4469
▁unbalanced	-4470
drat	-4471
ossed	-4472
▁teachers	-4473
▁interactions	-4474
▁root	-4475
▁cities	-4476
▁unaware	-4477
▁strategies	-4478
▁appreciated	-4479
▁access	-4480
▁Changes	-4481
▁overcoming	-4482
▁scare	-4483
organized	-4484
rics	-4485
oration	-4486
▁insect	-4487
▁dressing	-4488
▁probably	-4489
rep	-4490
▁daunting	-4491
tered	-4492
▁unity	-4493
▁limited	-4494
▁Cl	-4495
▁ded	-4496
▁nowhere	-4497
▁gh	-4498
▁pair	-4499
▁ghost	-4500
▁tests	-4501
▁dreary	-4502
▁observation	-4503
ped	-4504
▁male	-4505
▁rust	-4506
▁told	-4507
▁flags	-4508
▁covers	-4509
▁hydrat	-4510
ommend	-4511
▁review	-4512
▁shorter	-4513
▁recommend	-4514
▁tun	-4515
▁flex	-4516
▁incredi	-4517
▁celebrating	-4518
▁satisfaction	-4519
▁lif	-4520
▁report	-4521
▁listens	-4522
▁parents	-4523
▁circles	-4524
▁experts	-4525
▁fragile	-4526
▁togetherness	-4527
▁sens	-4528
izes	-4529
▁bins	-4530
▁stylish	-4531
▁character	-4532
▁expensive	-4533
▁imagining	-4534
uffy	-4535
▁sort	-4536
▁mixing	-4537
▁showed	-4538
▁Enjoying	-4539
oing	-4540
storm	-4541
fession	-4542
▁goodby	-4543
▁instin	-4544
▁embracing	-4545
▁moder	-4546
▁descri	-4547
▁empathy	-4548
▁examples	-4549
▁gifts	-4550
▁aspect	-4551
▁muscle	-4552
▁irritating	-4553
dows	-4554
utions	-4555
▁unpro	-4556
▁opt	-4557
atures	-4558
▁unwanted	-4559
▁temperatures	-4560
term	-4561
▁ban	-4562
▁liked	-4563
▁scient	-4564
▁united	-4565
umbs	-4566
▁joining	-4567
▁surfaces	-4568
orthy	-4569
amiliar	-4570
▁anytime	-4571
▁standing	-4572
▁testing	-4573
▁throwing	-4574
assed	-4575
iture	-4576
▁furn	-4577
▁vary	-4578
repared	-4579
▁wounds	-4580
▁furniture	-4581
▁restaurants	-4582
▁gest	-4583
▁sadly	-4584
▁locked	-4585
▁display	-4586
berries	-4587
▁neighb	-4588
▁reports	-4589
▁motivate	-4590
▁knots	-4591
▁decided	-4592
▁mysteries	-4593
▁sneezing	-4594
▁unfamiliar	-4595
▁Are	-4596
▁grab	-4597
▁fluffy	-4598
▁strang	-4599
▁culture	-4600
▁avoiding	-4601
▁hydrated	-4602
urity	-4603
▁steep	-4604
▁outfit	-4605
▁prepar	-4606
▁artwork	-4607
utes	-4608
▁two	-4609
erate	-4610
▁lets	-4611
▁image	-4612
▁lasts	-4613
▁unn	-4614
▁nois	-4615
▁climbing	-4616
▁constantly	-4617
▁celebration	-4618
▁lower	-4619
iration	-4620
▁bridge	-4621
▁loving	-4622
sha	-4623
ndry	-4624
▁flights	-4625
▁product	-4626
▁bes	-4627
▁phone	-4628
▁racing	-4629
▁reveal	-4630
▁oranges	-4631
▁neighborhoods	-4632
▁significantly	-4633
▁noisy	-4634
▁unexciting	-4635
ards	-4636
nding	-4637
ubb	-4638
▁Dr	-4639
flies	-4640
▁sponges	-4641
olves	-4642
▁Educ	-4643
▁moved	-4644
▁granted	-4645
▁mention	-4646
▁describe	-4647
▁dev	-4648
▁ships	-4649
together	-4650
▁flowing	-4651
▁receipts	-4652
▁aff	-4653
atives	-4654
▁regain	-4655
▁birthday	-4656
▁particip	-4657
▁neighbors	-4658
▁unprepared	-4659
▁reflections	-4660
ocks	-4661
▁beings	-4662
▁laundry	-4663
▁quicker	-4664
umm	-4665
imming	-4666
▁points	-4667
▁hopeless	-4668
▁aim	-4669
▁artist	-4670
▁jacket	-4671
▁returns	-4672
▁function	-4673
▁Happiness	-4674
▁cooked	-4675
▁hiking	-4676
▁frequently	-4677
▁experiencing	-4678
▁Art	-4679
▁vers	-4680
▁combin	-4681
onnected	-4682
▁tangled	-4683
▁ended	-4684
▁equally	-4685
▁payments	-4686
▁security	-4687
▁management	-4688
itude	-4689
▁sore	-4690
▁wires	-4691
▁afford	-4692
▁wonderfully	-4693
▁rays	-4694
▁finances	-4695
▁contribute	-4696
▁wake	-4697
▁desires	-4698
▁insights	-4699
room	-4700
fulfill	-4701
▁programs	-4702
▁Im	-4703
irts	-4704
vest	-4705
▁lay	-4706
idance	-4707
▁freshness	-4708
▁unfulfill	-4709
▁acknowledge	-4710
▁Shadows	-4711
▁features	-4712
▁guidance	-4713
ummy	-4714
▁float	-4715
▁attend	-4716
▁chores	-4717
▁Imag	-4718
▁tries	-4719
▁candles	-4720
▁Choosing	-4721
eases	-4722
▁diverse	-4723
▁shaking	-4724
▁playtime	-4725
▁experienced	-4726
▁maintaining	-4727
▁hous	-4728
▁sides	-4729
▁goodbye	-4730
▁energized	-4731
▁boots	-4732
▁unfold	-4733
▁illness	-4734
br	-4735
▁windy	-4736
ots	-4737
ands	-4738
▁emerg	-4739
▁blocking	-4740
▁draining	-4741
▁sticking	-4742
▁dim	-4743
▁squ	-4744
enses	-4745
▁Dogs	-4746
▁odors	-4747
▁surrounding	-4748
bts	-4749
▁cards	-4750
▁shore	-4751
▁sneez	-4752
▁toast	-4753
▁readers	-4754
▁weighing	-4755
▁rot	-4756
▁laug	-4757
▁Drinking	-4758
ipes	-4759
▁stir	-4760
▁waters	-4761
▁occasions	-4762
urt	-4763
▁hung	-4764
▁disast	-4765
▁laughed	-4766
▁Food	-4767
▁rides	-4768
▁engage	-4769
▁Holding	-4770
▁solving	-4771
▁crawling	-4772
▁frustrates	-4773
ental	-4774
▁study	-4775
▁traditions	-4776
aps	-4777
▁Friends	-4778
▁bravery	-4779
▁highlight	-4780
izz	-4781
▁pipes	-4782
▁Flowers	-4783
▁selfish	-4784
▁dedication	-4785
▁brightening	-4786
pen	-4787
ump	-4788
▁Caring	-4789
▁unlike	-4790
▁manners	-4791
▁travels	-4792
▁sway	-4793
▁aspects	-4794
▁incredible	-4795
▁attractions	-4796
▁inspiration	-4797
hile	-4798
▁ballo	-4799
▁unnot	-4800
▁Swimming	-4801
▁altogether	-4802
iven	-4803
▁drag	-4804
▁method	-4805
▁steaming	-4806
▁stomachs	-4807
▁polishing	-4808
▁Supporting	-4809
oving	-4810
▁vast	-4811
ressing	-4812
▁softer	-4813
▁following	-4814
▁experiment	-4815
▁protection	-4816
▁dism	-4817
▁gloves	-4818
▁passion	-4819
cu	-4820
▁says	-4821
▁heads	-4822
▁names	-4823
▁lies	-4824
▁dancing	-4825
▁oversha	-4826
▁diseases	-4827
▁drawings	-4828
▁stepping	-4829
▁exercises	-4830
oint	-4831
▁gave	-4832
▁isol	-4833
▁expenses	-4834
▁resilience	-4835
▁butterflies	-4836
▁responsibly	-4837
▁Warm	-4838
▁fost	-4839
▁tack	-4840
▁hungry	-4841
▁mouths	-4842
gest	-4843
tains	-4844
▁deli	-4845
▁Trust	-4846
▁effici	-4847
▁Missing	-4848
cha	-4849
yst	-4850
▁At	-4851
▁aud	-4852
▁tied	-4853
▁raining	-4854
▁rubbing	-4855
▁shocked	-4856
▁unending	-4857
▁playground	-4858
▁properties	-4859
rap	-4860
▁worn	-4861
▁dram	-4862
▁herbs	-4863
ratitude	-4864
▁Communication	-4865
elling	-4866
▁height	-4867
▁observe	-4868
ored	-4869
ushes	-4870
▁rushing	-4871
▁unable	-4872
▁curtains	-4873
▁influences	-4874
▁hats	-4875
▁modern	-4876
▁thrown	-4877
unk	-4878
▁legs	-4879
▁lemon	-4880
▁yummy	-4881
▁houses	-4882
▁outfits	-4883
▁profits	-4884
▁thankful	-4885
▁sav	-4886
▁holiday	-4887
▁numbers	-4888
▁happiest	-4889
▁wasteful	-4890
▁pointless	-4891
▁fres	-4892
▁pests	-4893
ced	-4894
▁wore	-4895
▁pause	-4896
▁beneath	-4897
▁corners	-4898
▁scarier	-4899
▁included	-4900
cing	-4901
heart	-4902
alities	-4903
▁supposed	-4904
▁sweetness	-4905
▁unnoticed	-4906
ledging	-4907
▁louder	-4908
▁oceans	-4909
▁sticks	-4910
▁stock	-4911
▁clears	-4912
▁simplest	-4913
orms	-4914
▁bones	-4915
▁grace	-4916
▁harms	-4917
▁hurry	-4918
▁scent	-4919
▁Spring	-4920
▁recovery	-4921
reed	-4922
▁wing	-4923
▁bands	-4924
hearted	-4925
▁spices	-4926
▁shoulders	-4927
▁organizations	-4928
▁tele	-4929
▁shelves	-4930
▁impulses	-4931
▁distracting	-4932
▁instincts	-4933
eng	-4934
izza	-4935
eating	-4936
▁option	-4937
▁source	-4938
▁tiredness	-4939
▁pool	-4940
olving	-4941
ales	-4942
dges	-4943
▁Enc	-4944
▁straw	-4945
▁scares	-4946
▁wander	-4947
▁filling	-4948
▁carefree	-4949
▁flexible	-4950
▁cooperate	-4951
▁unchanging	-4952
▁sched	-4953
▁unite	-4954
▁Wishing	-4955
▁accompl	-4956
aff	-4957
▁ur	-4958
▁tells	-4959
▁lesson	-4960
▁construction	-4961
▁gall	-4962
▁pudd	-4963
▁swee	-4964
▁cords	-4965
▁flood	-4966
▁warms	-4967
▁reviews	-4968
▁shelter	-4969
▁creations	-4970
imy	-4971
▁cakes	-4972
▁longing	-4973
▁qualities	-4974
stain	-4975
▁languages	-4976
▁scientists	-4977
nov	-4978
acked	-4979
▁forgetting	-4980
▁holes	-4981
▁softly	-4982
▁sustain	-4983
fessional	-4984
▁concent	-4985
care	-4986
▁television	-4987
▁disrespectful	-4988
▁Cats	-4989
▁crops	-4990
▁purcha	-4991
▁vessels	-4992
▁provides	-4993
▁directions	-4994
▁interested	-4995
ached	-4996
▁walked	-4997
▁ticking	-4998
▁willing	-4999
▁injuries	-5000
▁thoughtless	-5001
dow	-5002
▁nutri	-5003
▁balancing	-5004
▁expecting	-5005
▁overshadow	-5006
▁built	-5007
▁inspires	-5008
cap	-5009
▁obst	-5010
▁Happy	-5011
▁stable	-5012
▁talent	-5013
▁workplace	-5014
▁unl	-5015
▁genu	-5016
ically	-5017
▁deals	-5018
▁Education	-5019
▁And	-5020
▁crit	-5021
anting	-5022
▁perce	-5023
▁obstac	-5024
▁remains	-5025
▁disrupts	-5026
▁capturing	-5027
ror	-5028
▁empt	-5029
▁Clear	-5030
▁yours	-5031
▁discouraging	-5032
ify	-5033
▁age	-5034
aight	-5035
ductive	-5036
▁resear	-5037
▁fabrics	-5038
▁straight	-5039
▁schedules	-5040
▁carelessness	-5041
cking	-5042
paring	-5043
▁marks	-5044
▁Seeing	-5045
▁patients	-5046
▁sandcast	-5047
▁brightened	-5048
▁presentation	-5049
▁unproductive	-5050
eeds	-5051
▁Their	-5052
▁engines	-5053
▁occasion	-5054
▁nutrients	-5055
co	-5056
▁junk	-5057
▁writ	-5058
▁Worry	-5059
▁pages	-5060
▁biggest	-5061
▁treating	-5062
▁sensitive	-5063
▁respecting	-5064
▁recognition	-5065
▁Sad	-5066
▁blend	-5067
▁passed	-5068
▁slower	-5069
▁unfairly	-5070
▁Ag	-5071
▁hill	-5072
▁exists	-5073
▁creeping	-5074
▁standards	-5075
▁devices	-5076
▁involves	-5077
▁Encouraging	-5078
gue	-5079
▁She	-5080
▁bri	-5081
▁cou	-5082
▁fading	-5083
▁Strange	-5084
▁viewers	-5085
▁Snee	-5086
▁staff	-5087
▁wiser	-5088
▁Today	-5089
▁assist	-5090
▁Stories	-5091
▁sending	-5092
▁providing	-5093
arr	-5094
▁conven	-5095
▁figures	-5096
▁respons	-5097
▁obstacles	-5098
▁tails	-5099
▁admire	-5100
▁pockets	-5101
▁tickets	-5102
▁satisfied	-5103
▁adjustments	-5104
▁unorganized	-5105
▁Res	-5106
▁races	-5107
▁plates	-5108
▁players	-5109
▁consideration	-5110
▁Isn	-5111
▁stubb	-5112
▁endings	-5113
▁presence	-5114
▁encouragement	-5115
▁diet	-5116
▁pizza	-5117
▁arching	-5118
▁ringing	-5119
▁holidays	-5120
▁protests	-5121
▁preparation	-5122
▁mad	-5123
aches	-5124
ining	-5125
ulner	-5126
▁diff	-5127
▁flames	-5128
▁outings	-5129
▁studies	-5130
▁sees	-5131
▁Connect	-5132
▁annoyances	-5133
▁recognized	-5134
▁Al	-5135
rees	-5136
oping	-5137
osyst	-5138
▁charge	-5139
▁vulner	-5140
▁besides	-5141
▁ecosyst	-5142
▁audience	-5143
▁habitats	-5144
▁impression	-5145
▁disagreements	-5146
▁innov	-5147
racticing	-5148
▁fearsome	-5149
▁whatever	-5150
▁neglected	-5151
▁Tom	-5152
ashed	-5153
tings	-5154
▁seats	-5155
▁relieve	-5156
▁Checking	-5157
▁lightness	-5158
▁stability	-5159
▁dep	-5160
▁hug	-5161
▁strive	-5162
ardening	-5163
▁bottles	-5164
▁correct	-5165
▁Sneezing	-5166
▁entirely	-5167
▁hass	-5168
▁toug	-5169
▁baked	-5170
▁given	-5171
▁rotten	-5172
▁background	-5173
uses	-5174
▁toes	-5175
▁sweeter	-5176
▁distracted	-5177
hic	-5178
ounds	-5179
▁docu	-5180
▁pond	-5181
▁runs	-5182
▁fires	-5183
quality	-5184
▁settle	-5185
▁unheard	-5186
▁accepting	-5187
▁responses	-5188
mat	-5189
reparing	-5190
▁cushions	-5191
▁gratitude	-5192
▁strengths	-5193
▁relationship	-5194
ants	-5195
▁chef	-5196
▁fans	-5197
▁wond	-5198
worthy	-5199
▁Comfort	-5200
▁evenings	-5201
▁listened	-5202
cogn	-5203
▁aren	-5204
▁sold	-5205
▁dusty	-5206
▁adults	-5207
▁hassle	-5208
▁settings	-5209
▁cooperation	-5210
gly	-5211
▁pulls	-5212
▁rates	-5213
▁crowds	-5214
▁doubts	-5215
▁warnings	-5216
▁emptiness	-5217
▁spl	-5218
▁Most	-5219
▁bump	-5220
▁guns	-5221
▁Strong	-5222
▁guests	-5223
▁invest	-5224
▁tackle	-5225
▁created	-5226
▁Saf	-5227
▁bow	-5228
▁joke	-5229
▁kites	-5230
ifferen	-5231
▁minutes	-5232
▁Dis	-5233
▁buds	-5234
▁desk	-5235
▁pour	-5236
▁Safety	-5237
▁bricks	-5238
▁sorrow	-5239
▁painted	-5240
▁gestures	-5241
▁combinations	-5242
esty	-5243
▁humid	-5244
▁comforts	-5245
▁wondered	-5246
▁interruptions	-5247
▁reb	-5248
ipping	-5249
▁Agreed	-5250
▁restore	-5251
▁companions	-5252
▁strawberries	-5253
▁Sl	-5254
▁pace	-5255
ipment	-5256
▁aller	-5257
▁stain	-5258
▁annoys	-5259
▁creature	-5260
▁offering	-5261
▁successful	-5262
ume	-5263
▁buzz	-5264
▁grad	-5265
▁hardest	-5266
▁equipment	-5267
▁lightning	-5268
▁recognizing	-5269
▁contributions	-5270
ties	-5271
engers	-5272
▁fights	-5273
▁regret	-5274
▁achievements	-5275
▁dur	-5276
▁beaches	-5277
▁Tomorrow	-5278
▁mentioned	-5279
▁promoting	-5280
▁efficiently	-5281
ees	-5282
▁zoo	-5283
▁drives	-5284
▁appoint	-5285
▁kitchens	-5286
▁nighttime	-5287
▁particular	-5288
▁passengers	-5289
onf	-5290
▁hon	-5291
▁chose	-5292
▁forming	-5293
▁lifesty	-5294
▁supports	-5295
▁concentrate	-5296
▁glow	-5297
▁kite	-5298
▁ugly	-5299
▁shall	-5300
ibility	-5301
▁begins	-5302
▁repeated	-5303
riendly	-5304
▁Sounds	-5305
▁videos	-5306
▁educate	-5307
▁genuine	-5308
▁increasing	-5309
▁uncertainties	-5310
isp	-5311
resp	-5312
▁fence	-5313
▁flour	-5314
▁judged	-5315
▁contrast	-5316
ued	-5317
▁sau	-5318
▁cuts	-5319
▁Child	-5320
▁slimy	-5321
▁vibes	-5322
▁altern	-5323
▁telling	-5324
▁aside	-5325
▁goods	-5326
▁grains	-5327
▁thumbs	-5328
▁unready	-5329
▁restless	-5330
▁Imagining	-5331
▁cherished	-5332
▁mold	-5333
reaking	-5334
▁burned	-5335
▁scream	-5336
▁sewing	-5337
▁weighs	-5338
▁entertaining	-5339
▁bowl	-5340
▁thinks	-5341
▁markets	-5342
▁pressing	-5343
▁repeating	-5344
▁decoration	-5345
oes	-5346
▁nurt	-5347
▁delayed	-5348
▁needles	-5349
▁comments	-5350
▁finishing	-5351
▁comfortably	-5352
▁entertainment	-5353
ulp	-5354
minded	-5355
▁rooms	-5356
▁sculp	-5357
▁weeds	-5358
▁Certain	-5359
▁consist	-5360
▁touches	-5361
▁regardless	-5362
pped	-5363
ixing	-5364
overs	-5365
▁coping	-5366
▁thanks	-5367
▁fresher	-5368
▁keys	-5369
▁grown	-5370
▁intim	-5371
▁sizes	-5372
▁fairly	-5373
▁sculpt	-5374
▁contain	-5375
▁grossed	-5376
▁studying	-5377
▁statements	-5378
▁van	-5379
▁muse	-5380
▁peri	-5381
▁bills	-5382
▁became	-5383
▁Worrying	-5384
▁catching	-5385
▁imagined	-5386
▁unkindness	-5387
mbre	-5388
etter	-5389
▁oper	-5390
mbrell	-5391
riving	-5392
▁creeps	-5393
▁stands	-5394
▁disgusts	-5395
irds	-5396
ords	-5397
▁adap	-5398
▁alike	-5399
▁moist	-5400
▁hardly	-5401
▁remark	-5402
▁shirts	-5403
▁kicking	-5404
▁returning	-5405
▁vulnerable	-5406
▁possibility	-5407
▁unfulfilled	-5408
▁object	-5409
▁Respect	-5410
▁instant	-5411
▁sickness	-5412
▁observing	-5413
▁combination	-5414
▁misl	-5415
▁swea	-5416
▁elect	-5417
▁matches	-5418
▁fulfilled	-5419
onom	-5420
▁tear	-5421
▁vibe	-5422
▁pride	-5423
▁sneak	-5424
flowers	-5425
▁research	-5426
kempt	-5427
▁result	-5428
▁tradition	-5429
▁twice	-5430
▁crunch	-5431
▁umbrell	-5432
▁unkempt	-5433
▁lemonade	-5434
▁Connecting	-5435
asty	-5436
ised	-5437
▁Dark	-5438
▁boun	-5439
▁sink	-5440
▁bubb	-5441
▁libr	-5442
▁repl	-5443
ficial	-5444
icycle	-5445
▁cance	-5446
▁learns	-5447
▁sunsets	-5448
▁wag	-5449
▁ripp	-5450
itting	-5451
▁comed	-5452
▁crying	-5453
▁econom	-5454
▁explan	-5455
ifferent	-5456
▁bicycle	-5457
▁attached	-5458
▁chalking	-5459
▁processes	-5460
▁religions	-5461
▁intentions	-5462
▁candy	-5463
▁depth	-5464
▁slips	-5465
▁guiding	-5466
▁puddles	-5467
▁pots	-5468
▁puts	-5469
▁tie	-5470
▁coins	-5471
▁Weather	-5472
▁designed	-5473
▁festival	-5474
▁deadlines	-5475
▁lingering	-5476
ggy	-5477
▁Imp	-5478
icity	-5479
kward	-5480
▁boss	-5481
▁banan	-5482
▁Moving	-5483
▁laughs	-5484
▁supply	-5485
▁desserts	-5486
▁unkindly	-5487
▁affordable	-5488
ky	-5489
▁tim	-5490
▁evoke	-5491
▁plain	-5492
▁gallery	-5493
▁uncover	-5494
▁Children	-5495
isons	-5496
think	-5497
▁nasty	-5498
▁bushes	-5499
▁commitment	-5500
▁competitions	-5501
ters	-5502
▁spin	-5503
▁Storms	-5504
▁shares	-5505
▁Driving	-5506
▁catches	-5507
▁farming	-5508
lls	-5509
▁Ad	-5510
▁tempor	-5511
▁awkward	-5512
▁efficient	-5513
nal	-5514
▁Rea	-5515
▁tunes	-5516
▁prints	-5517
▁relate	-5518
▁rights	-5519
▁screen	-5520
▁warmly	-5521
▁acceptable	-5522
▁performances	-5523
ups	-5524
uri	-5525
▁Cold	-5526
▁maps	-5527
▁balloon	-5528
▁landscape	-5529
▁paintings	-5530
▁exploration	-5531
▁sandcastles	-5532
▁threatening	-5533
▁unfortunately	-5534
▁juicy	-5535
▁parties	-5536
▁distraction	-5537
ater	-5538
▁pens	-5539
▁argue	-5540
▁Adding	-5541
▁collab	-5542
▁mostly	-5543
▁wheels	-5544
▁promise	-5545
▁interrupt	-5546
for	-5547
▁chore	-5548
▁Hoping	-5549
▁bearable	-5550
▁survival	-5551
▁disasters	-5552
▁unfairness	-5553
unt	-5554
▁dut	-5555
▁tire	-5556
▁cracks	-5557
▁realizing	-5558
▁operations	-5559
▁observations	-5560
asy	-5561
▁shi	-5562
apping	-5563
▁trigg	-5564
tenance	-5565
▁differ	-5566
▁resist	-5567
▁Resting	-5568
▁touched	-5569
▁moonlight	-5570
sweet	-5571
▁bend	-5572
▁fits	-5573
▁shades	-5574
▁versat	-5575
▁handled	-5576
▁melting	-5577
▁records	-5578
▁believing	-5579
▁resilient	-5580
▁approaches	-5581
▁beneficial	-5582
azy	-5583
eness	-5584
ident	-5585
▁cups	-5586
idating	-5587
▁mental	-5588
▁Hearing	-5589
▁lacking	-5590
▁liquids	-5591
▁pleasing	-5592
▁stopping	-5593
▁leftovers	-5594
▁priorities	-5595
▁bittersweet	-5596
ron	-5597
▁div	-5598
▁Sweet	-5599
▁sever	-5600
▁wishes	-5601
▁doctors	-5602
▁pumping	-5603
▁increases	-5604
▁opportunity	-5605
ograp	-5606
▁cour	-5607
▁wasn	-5608
▁stems	-5609
▁attemp	-5610
▁creamy	-5611
▁embarr	-5612
▁ghosts	-5613
▁picked	-5614
▁truths	-5615
▁budgets	-5616
▁collars	-5617
▁journal	-5618
▁locking	-5619
▁recycle	-5620
▁savings	-5621
▁intimidating	-5622
▁fav	-5623
▁urg	-5624
▁bare	-5625
▁pill	-5626
▁drops	-5627
▁final	-5628
▁library	-5629
▁several	-5630
▁Different	-5631
▁temporary	-5632
▁acknowledging	-5633
bo	-5634
▁la	-5635
▁spr	-5636
istic	-5637
asting	-5638
▁eager	-5639
▁groc	-5640
▁melt	-5641
▁inner	-5642
telling	-5643
▁throws	-5644
▁advance	-5645
▁maintenance	-5646
ov	-5647
▁dent	-5648
▁wished	-5649
▁bravely	-5650
▁harming	-5651
▁deciding	-5652
▁guessing	-5653
▁lifestyle	-5654
▁uncomfortably	-5655
erm	-5656
ased	-5657
itiz	-5658
▁Mist	-5659
▁horns	-5660
▁vehic	-5661
▁battle	-5662
▁wishing	-5663
▁requests	-5664
▁unknowns	-5665
cies	-5666
▁bites	-5667
▁grime	-5668
▁talents	-5669
▁theories	-5670
▁allergies	-5671
medi	-5672
▁men	-5673
▁lips	-5674
▁medic	-5675
▁favour	-5676
▁Washing	-5677
▁football	-5678
▁purposes	-5679
▁agreements	-5680
▁remarkable	-5681
eared	-5682
▁fails	-5683
ringing	-5684
▁immedi	-5685
▁rebuild	-5686
▁stopped	-5687
▁Mistakes	-5688
ils	-5689
wal	-5690
▁arms	-5691
▁dial	-5692
encies	-5693
▁noses	-5694
▁Running	-5695
▁counter	-5696
▁serving	-5697
▁alternatives	-5698
▁storytelling	-5699
wor	-5700
ppings	-5701
▁accur	-5702
▁disli	-5703
▁blooms	-5704
▁dialog	-5705
▁winning	-5706
▁professional	-5707
ucky	-5708
▁tow	-5709
▁sake	-5710
▁candle	-5711
▁shakes	-5712
▁bananas	-5713
▁subject	-5714
▁younger	-5715
▁twisting	-5716
▁favourite	-5717
▁practical	-5718
days	-5719
▁drama	-5720
▁unfor	-5721
▁buzzing	-5722
▁carries	-5723
▁dismiss	-5724
▁horrible	-5725
▁toppings	-5726
▁travelers	-5727
▁sustainable	-5728
dy	-5729
rich	-5730
▁bits	-5731
▁fades	-5732
▁unfun	-5733
▁untie	-5734
▁arguing	-5735
▁untrust	-5736
▁attempts	-5737
▁reconnect	-5738
▁versatile	-5739
▁cherishing	-5740
▁convenience	-5741
manag	-5742
▁Such	-5743
valued	-5744
▁extre	-5745
▁honey	-5746
▁rainb	-5747
▁viewp	-5748
▁amusing	-5749
▁classes	-5750
▁unmanag	-5751
▁whether	-5752
▁stockings	-5753
▁unmanageable	-5754
reg	-5755
idents	-5756
ightly	-5757
▁lucky	-5758
▁misleading	-5759
noc	-5760
▁Col	-5761
▁Fun	-5762
alling	-5763
▁innoc	-5764
▁stayed	-5765
▁steady	-5766
▁screens	-5767
▁unbright	-5768
elf	-5769
ades	-5770
▁bold	-5771
▁stroll	-5772
▁untang	-5773
▁futures	-5774
▁dropping	-5775
▁symbolize	-5776
▁creatively	-5777
▁exercising	-5778
fying	-5779
▁clut	-5780
▁fond	-5781
afraid	-5782
▁rings	-5783
isiting	-5784
▁umbrella	-5785
▁quietness	-5786
ank	-5787
cks	-5788
men	-5789
while	-5790
▁chick	-5791
▁injury	-5792
▁museum	-5793
▁strict	-5794
▁Wanting	-5795
▁compare	-5796
▁joyfully	-5797
▁unafraid	-5798
▁worthwhile	-5799
▁awa	-5800
▁bees	-5801
pening	-5802
▁excuses	-5803
▁harmless	-5804
▁unsettle	-5805
▁photograp	-5806
gia	-5807
bled	-5808
iers	-5809
algia	-5810
▁camp	-5811
▁Still	-5812
▁diets	-5813
▁fixes	-5814
▁flows	-5815
▁monst	-5816
▁squir	-5817
▁sooner	-5818
▁dentist	-5819
enty	-5820
wise	-5821
akers	-5822
oining	-5823
▁brown	-5824
▁sauce	-5825
▁sneezed	-5826
▁tougher	-5827
▁trusted	-5828
▁improved	-5829
acy	-5830
what	-5831
▁odor	-5832
▁renew	-5833
▁rolls	-5834
▁teams	-5835
▁brands	-5836
▁metals	-5837
▁classic	-5838
▁cleanup	-5839
▁Dressing	-5840
▁politics	-5841
▁somewhat	-5842
▁Reg	-5843
idence	-5844
rition	-5845
▁grand	-5846
▁disreg	-5847
▁invade	-5848
▁cruelty	-5849
▁pencils	-5850
sit	-5851
ases	-5852
going	-5853
table	-5854
▁ages	-5855
▁chefs	-5856
▁citiz	-5857
▁flick	-5858
▁hesit	-5859
▁sales	-5860
▁enrich	-5861
retching	-5862
▁pouring	-5863
▁humidity	-5864
▁messiness	-5865
▁environmental	-5866
▁enric	-5867
▁rocks	-5868
▁heated	-5869
▁Wearing	-5870
▁bubbles	-5871
▁howling	-5872
▁managed	-5873
▁cluttered	-5874
▁disregard	-5875
▁Stretching	-5876
cept	-5877
▁Eng	-5878
▁Heal	-5879
▁eleg	-5880
▁mend	-5881
onesty	-5882
▁burnt	-5883
▁rises	-5884
▁twisted	-5885
▁grounded	-5886
▁unrecogn	-5887
▁nutrition	-5888
▁wellbeing	-5889
▁untrustworthy	-5890
aim	-5891
gic	-5892
corn	-5893
▁nost	-5894
▁biting	-5895
▁crossed	-5896
▁harshly	-5897
▁leaking	-5898
▁citizens	-5899
▁dialogue	-5900
▁appointment	-5901
asp	-5902
book	-5903
tens	-5904
▁Sci	-5905
▁Will	-5906
urally	-5907
▁burns	-5908
▁roofs	-5909
▁vivid	-5910
▁forces	-5911
▁sweets	-5912
▁waking	-5913
▁unforget	-5914
▁emergency	-5915
che	-5916
respon	-5917
▁served	-5918
▁amounts	-5919
▁species	-5920
▁symbols	-5921
▁trigger	-5922
▁fleeting	-5923
▁shouting	-5924
▁gradually	-5925
▁protected	-5926
▁sunflowers	-5927
▁unforgettable	-5928
▁pa	-5929
apid	-5930
ians	-5931
made	-5932
▁vol	-5933
icies	-5934
orage	-5935
▁woke	-5936
▁yucky	-5937
▁judging	-5938
▁storage	-5939
▁cracking	-5940
▁isolated	-5941
▁policies	-5942
▁participate	-5943
ete	-5944
▁intri	-5945
▁rapid	-5946
▁tomat	-5947
mindful	-5948
▁borrow	-5949
▁ongoing	-5950
▁rethink	-5951
▁troubled	-5952
▁naturally	-5953
▁unmindful	-5954
▁disconnected	-5955
ged	-5956
beat	-5957
▁exh	-5958
eeded	-5959
▁Stress	-5960
▁sidewal	-5961
▁medicine	-5962
▁annoyance	-5963
▁production	-5964
▁appearances	-5965
ancy	-5966
▁orig	-5967
warming	-5968
▁Snakes	-5969
▁foster	-5970
▁sparks	-5971
friendly	-5972
▁sipping	-5973
▁smashed	-5974
▁delivery	-5975
▁appearing	-5976
▁emergencies	-5977
▁personality	-5978
▁heartwarming	-5979
▁pan	-5980
▁chew	-5981
erfect	-5982
▁puppy	-5983
▁determ	-5984
▁shifts	-5985
▁stretches	-5986
ods	-5987
ours	-5988
tons	-5989
▁untidy	-5990
▁crushed	-5991
▁hitting	-5992
▁oneself	-5993
▁periods	-5994
▁unsettled	-5995
▁Soft	-5996
▁bored	-5997
▁exhib	-5998
▁women	-5999
▁Wouldn	-6000
earching	-6001
▁Sadness	-6002
▁Thunder	-6003
▁closing	-6004
▁popcorn	-6005
▁skilled	-6006
▁threads	-6007
▁dislikes	-6008
▁decorating	-6009
▁strengthens	-6010
azing	-6011
oints	-6012
ormal	-6013
ecting	-6014
▁asked	-6015
▁claim	-6016
▁heights	-6017
▁wounded	-6018
▁attending	-6019
▁otherwise	-6020
▁expression	-6021
▁viewpoints	-6022
▁experimenting	-6023
▁cy	-6024
▁mir	-6025
odies	-6026
owing	-6027
▁cafe	-6028
▁disp	-6029
▁tale	-6030
▁appet	-6031
▁reass	-6032
▁users	-6033
▁buttons	-6034
▁caution	-6035
▁chasing	-6036
▁economy	-6037
▁intrigu	-6038
▁discussed	-6039
▁ech	-6040
▁chem	-6041
▁hits	-6042
▁stat	-6043
▁jumpy	-6044
▁cycles	-6045
▁arrived	-6046
▁crunchy	-6047
▁decorate	-6048
▁melodies	-6049
lly	-6050
vable	-6051
▁Sure	-6052
▁circ	-6053
▁ours	-6054
utting	-6055
▁decre	-6056
▁latest	-6057
▁influen	-6058
▁writers	-6059
▁entertained	-6060
▁instructions	-6061
▁rock	-6062
▁ducks	-6063
▁salty	-6064
ositive	-6065
▁ripple	-6066
▁setback	-6067
▁sneezes	-6068
▁snowmen	-6069
▁lifeless	-6070
▁possibly	-6071
▁successes	-6072
▁As	-6073
ships	-6074
▁beat	-6075
▁input	-6076
▁melts	-6077
▁fallen	-6078
▁rushed	-6079
▁attacks	-6080
▁fitness	-6081
▁startle	-6082
▁workout	-6083
▁innocent	-6084
▁tempting	-6085
▁misunderstood	-6086
ums	-6087
▁sets	-6088
▁towns	-6089
▁warming	-6090
▁appetite	-6091
▁watering	-6092
▁receiving	-6093
▁repeatedly	-6094
▁arr	-6095
issed	-6096
▁curves	-6097
▁shaped	-6098
▁unlock	-6099
▁worksp	-6100
▁jewelry	-6101
▁soaking	-6102
▁intriguing	-6103
▁pe	-6104
opes	-6105
arter	-6106
aught	-6107
lying	-6108
▁Sail	-6109
atural	-6110
▁horror	-6111
▁overhead	-6112
▁Certainly	-6113
▁disappears	-6114
oyal	-6115
capes	-6116
▁wider	-6117
▁manner	-6118
▁pollut	-6119
▁related	-6120
▁shaping	-6121
▁swaying	-6122
▁bothered	-6123
▁lighting	-6124
▁collective	-6125
▁unrecognized	-6126
icn	-6127
▁susp	-6128
▁artic	-6129
▁comfy	-6130
▁howls	-6131
▁males	-6132
▁please	-6133
▁durable	-6134
▁squirre	-6135
▁happenings	-6136
reak	-6137
▁Cha	-6138
inter	-6139
urous	-6140
▁half	-6141
▁sale	-6142
▁Sleep	-6143
▁drift	-6144
omplete	-6145
ritious	-6146
▁expand	-6147
▁greasy	-6148
▁upbeat	-6149
▁Sunlight	-6150
▁daylight	-6151
▁carriages	-6152
▁nutritious	-6153
let	-6154
oad	-6155
▁icy	-6156
▁coin	-6157
▁post	-6158
making	-6159
▁Rainy	-6160
▁widely	-6161
▁freeing	-6162
▁weights	-6163
▁flourish	-6164
▁productivity	-6165
uch	-6166
ened	-6167
▁Rel	-6168
▁ate	-6169
▁Disc	-6170
▁hike	-6171
icnics	-6172
▁evolve	-6173
▁lining	-6174
▁however	-6175
▁matching	-6176
▁unvalued	-6177
▁guidelines	-6178
▁bug	-6179
riage	-6180
▁stur	-6181
▁fancy	-6182
▁leaks	-6183
▁loyal	-6184
▁chicken	-6185
▁musical	-6186
▁persist	-6187
▁presents	-6188
▁Searching	-6189
▁collaboration	-6190
rop	-6191
roy	-6192
▁labe	-6193
▁cooks	-6194
▁smelly	-6195
▁untrue	-6196
▁bridges	-6197
▁confuse	-6198
▁destroy	-6199
▁islands	-6200
▁smelled	-6201
▁sandwich	-6202
▁smoothie	-6203
▁adventurous	-6204
ront	-6205
▁def	-6206
▁boil	-6207
▁ears	-6208
▁await	-6209
▁empow	-6210
▁tires	-6211
▁comput	-6212
pressing	-6213
▁cracked	-6214
▁selling	-6215
▁classroom	-6216
▁cast	-6217
▁sent	-6218
agious	-6219
▁calms	-6220
▁spicy	-6221
▁stuffy	-6222
▁washed	-6223
▁pinning	-6224
▁wedding	-6225
▁complaints	-6226
▁contagious	-6227
dom	-6228
belie	-6229
imate	-6230
▁Coll	-6231
▁Trees	-6232
▁While	-6233
▁Really	-6234
▁called	-6235
▁guides	-6236
▁raises	-6237
▁Regular	-6238
▁sparkle	-6239
▁goodness	-6240
▁soldiers	-6241
▁individual	-6242
▁Dra	-6243
▁below	-6244
versity	-6245
▁pushed	-6246
▁Drawing	-6247
▁Setting	-6248
▁deliver	-6249
▁extreme	-6250
▁greatest	-6251
▁beginning	-6252
▁tightness	-6253
▁gracefully	-6254
ugg	-6255
uts	-6256
ikes	-6257
isies	-6258
▁redu	-6259
▁crumbs	-6260
▁Folding	-6261
▁sounded	-6262
▁unfolds	-6263
▁ensuring	-6264
▁thriving	-6265
▁experiments	-6266
cre	-6267
uiet	-6268
onven	-6269
▁coat	-6270
▁utens	-6271
forward	-6272
onsider	-6273
olishing	-6274
▁smarter	-6275
▁lightens	-6276
▁slightly	-6277
▁burdensome	-6278
lit	-6279
▁fu	-6280
▁Ice	-6281
▁bin	-6282
▁yog	-6283
riers	-6284
▁attic	-6285
▁soups	-6286
▁spoons	-6287
▁adapting	-6288
▁untangle	-6289
▁educating	-6290
▁ecosystems	-6291
hand	-6292
▁gap	-6293
etime	-6294
lings	-6295
▁Team	-6296
▁mode	-6297
▁duties	-6298
▁linked	-6299
▁cheaper	-6300
▁contact	-6301
▁pretend	-6302
▁tastier	-6303
▁valuing	-6304
▁barriers	-6305
▁inconven	-6306
▁leftover	-6307
▁simplicity	-6308
▁particularly	-6309
iders	-6310
▁tears	-6311
▁salads	-6312
▁sturdy	-6313
▁consume	-6314
▁Engaging	-6315
▁moisture	-6316
▁groceries	-6317
▁purchases	-6318
▁straightforward	-6319
llows	-6320
▁calls	-6321
▁carts	-6322
▁lacks	-6323
▁Asking	-6324
▁losses	-6325
▁tracks	-6326
▁Sailing	-6327
▁follows	-6328
▁elements	-6329
▁lifetime	-6330
▁shutting	-6331
▁smashing	-6332
▁suspense	-6333
▁uplifted	-6334
▁brainstorm	-6335
▁destination	-6336
▁Emot	-6337
▁jumps	-6338
▁layer	-6339
▁shopp	-6340
▁bounce	-6341
▁heartb	-6342
▁timing	-6343
▁resolut	-6344
▁wagging	-6345
▁confront	-6346
▁crashing	-6347
▁flooding	-6348
▁stillness	-6349
▁sculptures	-6350
▁traditional	-6351
lph	-6352
arks	-6353
ship	-6354
▁Red	-6355
▁offe	-6356
seless	-6357
▁grasp	-6358
▁actual	-6359
▁harmed	-6360
▁festive	-6361
▁polished	-6362
▁shoppers	-6363
▁stubborn	-6364
▁utensils	-6365
▁judgments	-6366
responsible	-6367
▁incomplete	-6368
els	-6369
itch	-6370
▁Fam	-6371
▁Sil	-6372
▁bak	-6373
▁deb	-6374
▁haun	-6375
▁mult	-6376
▁appli	-6377
▁blame	-6378
▁haven	-6379
▁known	-6380
▁three	-6381
▁Family	-6382
▁drains	-6383
▁Meeting	-6384
▁wherever	-6385
▁addressing	-6386
▁treatments	-6387
▁visibility	-6388
▁representatives	-6389
nly	-6390
▁gi	-6391
▁vac	-6392
▁vit	-6393
uming	-6394
umping	-6395
▁clash	-6396
▁piles	-6397
▁Fixing	-6398
▁refuse	-6399
▁authors	-6400
▁dressed	-6401
▁fitting	-6402
▁useless	-6403
▁burdened	-6404
▁instantly	-6405
▁workspace	-6406
▁emotionally	-6407
▁advancements	-6408
▁tag	-6409
board	-6410
icals	-6411
▁exce	-6412
▁reme	-6413
atable	-6414
▁baths	-6415
▁hills	-6416
▁tying	-6417
▁advant	-6418
▁course	-6419
▁layers	-6420
▁signals	-6421
▁Teamwork	-6422
▁spilling	-6423
▁pressures	-6424
▁leadership	-6425
▁approaching	-6426
ples	-6427
▁dra	-6428
▁tab	-6429
▁tip	-6430
▁gems	-6431
▁plot	-6432
▁collea	-6433
▁consum	-6434
▁deepen	-6435
▁neatly	-6436
▁chemicals	-6437
▁documents	-6438
▁wandering	-6439
▁exchanging	-6440
▁immediately	-6441
aked	-6442
irer	-6443
loom	-6444
miss	-6445
▁paid	-6446
▁brakes	-6447
▁fairer	-6448
▁openness	-6449
▁strangers	-6450
▁highlights	-6451
▁cheerfulness	-6452
zes	-6453
hest	-6454
phan	-6455
▁ant	-6456
▁scat	-6457
esents	-6458
▁necks	-6459
▁vitam	-6460
essions	-6461
ructive	-6462
▁phones	-6463
▁bedtime	-6464
▁Emotions	-6465
▁smoothies	-6466
▁achievement	-6467
▁comparisons	-6468
fly	-6469
loy	-6470
inal	-6471
algic	-6472
▁ripe	-6473
▁lakes	-6474
▁route	-6475
▁stove	-6476
▁theme	-6477
▁employ	-6478
▁mapping	-6479
▁electric	-6480
▁purchase	-6481
▁diversity	-6482
▁strangely	-6483
▁vegetable	-6484
▁bitterness	-6485
▁represents	-6486
▁countryside	-6487
ser	-6488
▁Sur	-6489
works	-6490
▁Dust	-6491
▁menu	-6492
▁Truly	-6493
▁absor	-6494
▁backy	-6495
▁edges	-6496
▁intern	-6497
▁statue	-6498
▁Healthy	-6499
▁Honesty	-6500
▁However	-6501
▁Science	-6502
▁Sitting	-6503
▁demands	-6504
▁disaster	-6505
▁marriage	-6506
▁shifting	-6507
nc	-6508
▁Ac	-6509
▁gad	-6510
▁mas	-6511
▁fake	-6512
▁grill	-6513
▁ident	-6514
▁checks	-6515
▁cowork	-6516
▁gadget	-6517
▁brushes	-6518
▁gesture	-6519
oneliness	-6520
▁normally	-6521
▁unstable	-6522
▁landscapes	-6523
▁developments	-6524
▁suit	-6525
▁corks	-6526
▁preca	-6527
fulness	-6528
itching	-6529
overing	-6530
▁internet	-6531
▁exchanges	-6532
▁forecasts	-6533
▁acceptance	-6534
ane	-6535
▁Mon	-6536
▁Cher	-6537
▁held	-6538
▁amaze	-6539
▁boxes	-6540
▁moldy	-6541
ounting	-6542
ulations	-6543
▁document	-6544
▁snowball	-6545
▁unneeded	-6546
▁interrupts	-6547
▁distressing	-6548
chan	-6549
▁cen	-6550
▁sup	-6551
▁acted	-6552
▁locks	-6553
▁snowy	-6554
▁invent	-6555
▁mechan	-6556
▁polite	-6557
▁offered	-6558
▁dreaming	-6559
▁location	-6560
▁vehicles	-6561
▁Cherishing	-6562
▁consistent	-6563
▁irritation	-6564
cons	-6565
load	-6566
urning	-6567
ancakes	-6568
▁Winter	-6569
▁comedy	-6570
▁pollen	-6571
▁Sending	-6572
▁daisies	-6573
▁pasting	-6574
▁reduces	-6575
▁tighter	-6576
▁brushing	-6577
▁relatable	-6578
▁resolving	-6579
▁friendlier	-6580
▁companionship	-6581
hus	-6582
▁Co	-6583
husi	-6584
qual	-6585
vent	-6586
▁Mom	-6587
▁ties	-6588
caping	-6589
ressed	-6590
▁panic	-6591
▁spoke	-6592
▁Ending	-6593
▁sugary	-6594
▁trails	-6595
▁unseen	-6596
▁Healing	-6597
▁Moments	-6598
▁haunted	-6599
▁nations	-6600
▁rainbow	-6601
▁rustling	-6602
▁sidewalk	-6603
▁ecosystem	-6604
▁physically	-6605
nees	-6606
llent	-6607
loomy	-6608
▁Curi	-6609
▁These	-6610
▁crash	-6611
▁crawl	-6612
▁drawn	-6613
▁knees	-6614
▁loses	-6615
▁photo	-6616
mission	-6617
▁Hiding	-6618
▁planets	-6619
▁computer	-6620
▁distances	-6621
▁increased	-6622
▁disappointments	-6623
eria	-6624
▁Deep	-6625
▁gaps	-6626
▁vent	-6627
ieties	-6628
though	-6629
▁pushes	-6630
▁recall	-6631
▁pillows	-6632
▁accounts	-6633
▁dramatic	-6634
▁setbacks	-6635
▁workload	-6636
▁frightens	-6637
▁Respecting	-6638
▁unthinking	-6639
▁precautions	-6640
▁ob	-6641
enic	-6642
yrics	-6643
▁Also	-6644
▁soak	-6645
▁furry	-6646
▁rusty	-6647
▁shown	-6648
▁whisp	-6649
racking	-6650
▁claims	-6651
▁knives	-6652
▁mirror	-6653
▁plenty	-6654
▁soaked	-6655
▁Support	-6656
▁sweater	-6657
▁Trusting	-6658
▁Curiosity	-6659
▁excellent	-6660
▁nurturing	-6661
lue	-6662
rew	-6663
rgan	-6664
▁trap	-6665
▁remed	-6666
▁trays	-6667
▁lyrics	-6668
▁shells	-6669
▁jackets	-6670
▁accepted	-6671
▁backyard	-6672
▁balloons	-6673
▁coldness	-6674
▁learners	-6675
▁consumers	-6676
▁permission	-6677
▁pleasantly	-6678
▁Sc	-6679
umst	-6680
allow	-6681
dered	-6682
rance	-6683
▁eaten	-6684
▁foggy	-6685
▁scrat	-6686
▁Flying	-6687
▁misuse	-6688
▁sleepy	-6689
▁airport	-6690
▁calling	-6691
▁circumst	-6692
▁dragging	-6693
▁perceive	-6694
▁unexcited	-6695
▁presenting	-6696
▁accomplished	-6697
▁personalities	-6698
lves	-6699
▁glue	-6700
▁sadd	-6701
depend	-6702
lphins	-6703
▁blades	-6704
▁fondly	-6705
▁taught	-6706
▁charming	-6707
▁trusting	-6708
▁underest	-6709
▁Chocolate	-6710
▁birthdays	-6711
▁inconvenient	-6712
▁thunderstorm	-6713
▁dw	-6714
▁Con	-6715
▁ads	-6716
happy	-6717
▁More	-6718
▁chip	-6719
▁mail	-6720
▁crisp	-6721
▁misty	-6722
ivating	-6723
▁Acknow	-6724
▁stored	-6725
▁traits	-6726
▁couples	-6727
▁slowing	-6728
▁tongues	-6729
▁servants	-6730
▁fearfully	-6731
▁startling	-6732
▁Everything	-6733
▁assistance	-6734
▁resolution	-6735
▁mindfulness	-6736
▁circumstances	-6737
▁determination	-6738
▁heartbreaking	-6739
lt	-6740
▁Aut	-6741
usions	-6742
▁downt	-6743
▁backup	-6744
▁floors	-6745
▁genres	-6746
▁labels	-6747
▁reacts	-6748
▁failing	-6749
▁unequal	-6750
▁accurate	-6751
▁coughing	-6752
▁unnormal	-6753
▁fostering	-6754
▁protective	-6755
▁disorganized	-6756
▁unfulfilling	-6757
nel	-6758
▁coc	-6759
▁Conf	-6760
▁Soup	-6761
▁Simpl	-6762
atience	-6763
ppiness	-6764
▁easing	-6765
▁sheets	-6766
▁slopes	-6767
▁vanish	-6768
▁waving	-6769
▁ignores	-6770
▁deadline	-6771
▁frightful	-6772
▁presented	-6773
▁explanation	-6774
ext	-6775
augh	-6776
▁coast	-6777
▁giant	-6778
▁honor	-6779
▁Summer	-6780
▁coughs	-6781
▁overly	-6782
▁placed	-6783
▁pulled	-6784
▁tables	-6785
▁Smiling	-6786
▁continu	-6787
▁thicker	-6788
▁decrease	-6789
▁downtown	-6790
▁softness	-6791
bal	-6792
icky	-6793
itter	-6794
▁Cows	-6795
▁zones	-6796
aughing	-6797
▁Monkey	-6798
▁silent	-6799
▁waited	-6800
ostalgia	-6801
▁forests	-6802
▁nurture	-6803
▁although	-6804
▁endlessly	-6805
▁listeners	-6806
▁scattered	-6807
▁unnatural	-6808
▁underestimate	-6809
▁accomplishment	-6810
chy	-6811
▁Don	-6812
▁Who	-6813
▁jam	-6814
icked	-6815
ighed	-6816
ittle	-6817
▁Rest	-6818
roving	-6819
▁Color	-6820
▁Could	-6821
▁Advent	-6822
▁bakery	-6823
▁chairs	-6824
▁selves	-6825
▁unconf	-6826
▁puzzles	-6827
▁collects	-6828
▁independ	-6829
▁sparkles	-6830
▁unworthy	-6831
▁squirrels	-6832
ote	-6833
acks	-6834
rove	-6835
▁rob	-6836
anned	-6837
erful	-6838
▁crazy	-6839
▁greet	-6840
▁glance	-6841
▁golden	-6842
▁member	-6843
▁safest	-6844
▁taller	-6845
▁Monkeys	-6846
▁elegant	-6847
▁heating	-6848
▁visible	-6849
▁followed	-6850
▁promised	-6851
▁spinning	-6852
▁Improving	-6853
▁dirtiness	-6854
▁disappearing	-6855
▁recommendations	-6856
nier	-6857
▁beds	-6858
▁cere	-6859
▁toot	-6860
▁brand	-6861
▁center	-6862
▁couldn	-6863
▁bending	-6864
▁weighed	-6865
▁adorable	-6866
▁pancakes	-6867
▁rewarded	-6868
▁strategy	-6869
▁backgrounds	-6870
▁educational	-6871
▁unpredictably	-6872
atur	-6873
▁eco	-6874
cepts	-6875
▁blew	-6876
▁Satur	-6877
▁bloss	-6878
▁forks	-6879
▁mispl	-6880
▁skirts	-6881
▁digital	-6882
▁porters	-6883
▁restful	-6884
▁attended	-6885
▁concepts	-6886
▁startled	-6887
▁advantage	-6888
▁powerless	-6889
▁Collecting	-6890
▁appliances	-6891
▁explanations	-6892
▁successfully	-6893
▁thoughtfully	-6894
▁communicating	-6895
etry	-6896
▁shy	-6897
▁grap	-6898
▁port	-6899
▁wines	-6900
▁Sticky	-6901
▁frames	-6902
▁serves	-6903
▁splash	-6904
▁wisdom	-6905
▁rhythms	-6906
▁displays	-6907
▁behaviour	-6908
▁expressions	-6909
▁unconfident	-6910
▁respectfully	-6911
▁Acknowledging	-6912
pell	-6913
▁wil	-6914
▁gear	-6915
▁hell	-6916
▁loop	-6917
aining	-6918
▁dental	-6919
▁unreal	-6920
▁Surpris	-6921
▁failure	-6922
▁strikes	-6923
▁enriches	-6924
▁graceful	-6925
▁polluted	-6926
▁reacting	-6927
▁unlikely	-6928
▁Yesterday	-6929
▁histories	-6930
bec	-6931
aming	-6932
eased	-6933
ption	-6934
▁brie	-6935
▁tone	-6936
phants	-6937
▁airpl	-6938
▁hangs	-6939
▁hello	-6940
▁tested	-6941
▁timely	-6942
▁unener	-6943
▁urgent	-6944
▁focuses	-6945
▁mothers	-6946
▁planted	-6947
▁sailors	-6948
▁stained	-6949
▁Saturday	-6950
▁resolved	-6951
▁achieving	-6952
▁nostalgic	-6953
▁innovation	-6954
ey	-6955
ub	-6956
▁Se	-6957
▁coz	-6958
▁wea	-6959
cient	-6960
▁bench	-6961
▁scarf	-6962
▁thous	-6963
▁truck	-6964
▁unche	-6965
▁beside	-6966
▁chills	-6967
▁garage	-6968
▁jumped	-6969
▁drawers	-6970
▁saddest	-6971
▁coverage	-6972
▁butterfly	-6973
▁dismissed	-6974
▁employees	-6975
▁Expressing	-6976
▁performing	-6977
ian	-6978
▁obv	-6979
▁fier	-6980
▁wedd	-6981
▁boosts	-6982
▁petals	-6983
▁puzzle	-6984
catching	-6985
▁arrange	-6986
▁obvious	-6987
▁trained	-6988
▁weddings	-6989
▁disturbed	-6990
▁sparkling	-6991
▁unplanned	-6992
▁afternoons	-6993
▁embarrassed	-6994
▁unconnected	-6995
cl	-6996
▁Wh	-6997
fare	-6998
lants	-6999
▁stood	-7000
▁Testing	-7001
▁airlines	-7002
▁appeared	-7003
▁canceled	-7004
▁relieved	-7005
▁constructive	-7006
sen	-7007
itar	-7008
inkle	-7009
water	-7010
cooked	-7011
olling	-7012
▁Trave	-7013
▁advoc	-7014
▁minor	-7015
▁reson	-7016
▁terri	-7017
righter	-7018
▁fierce	-7019
▁Cutting	-7020
▁avoided	-7021
▁daytime	-7022
▁artistic	-7023
▁critical	-7024
▁vitamins	-7025
▁budgeting	-7026
▁Cleanliness	-7027
rops	-7028
▁Yet	-7029
▁ran	-7030
▁vet	-7031
▁earn	-7032
▁term	-7033
▁Dream	-7034
▁nests	-7035
▁score	-7036
▁absorb	-7037
wracking	-7038
▁gadgets	-7039
▁gaining	-7040
▁welfare	-7041
▁Stitching	-7042
▁affection	-7043
▁embarrass	-7044
▁overwhelm	-7045
▁ingredient	-7046
▁unprofessional	-7047
▁bank	-7048
▁wars	-7049
▁backs	-7050
▁cling	-7051
▁filmm	-7052
▁roses	-7053
▁Snacks	-7054
▁barbec	-7055
▁festiv	-7056
▁joined	-7057
▁rarely	-7058
▁swings	-7059
▁breezes	-7060
▁drained	-7061
▁privacy	-7062
▁sunnier	-7063
▁illnesses	-7064
▁harmonious	-7065
▁threatened	-7066
▁conclusions	-7067
fa	-7068
aze	-7069
sty	-7070
▁Ce	-7071
▁ache	-7072
inform	-7073
rowing	-7074
▁buses	-7075
▁fairy	-7076
▁frost	-7077
▁piled	-7078
▁raind	-7079
acteria	-7080
lanting	-7081
▁Mixing	-7082
▁tomato	-7083
reathing	-7084
▁ancient	-7085
▁rapidly	-7086
▁humanity	-7087
▁searched	-7088
▁misplaced	-7089
▁flickering	-7090
▁Friendships	-7091
▁confidently	-7092
▁questioning	-7093
rn	-7094
▁'	-7095
ese	-7096
▁ung	-7097
▁Wool	-7098
▁skip	-7099
▁soar	-7100
▁weal	-7101
▁wins	-7102
lebrat	-7103
ooming	-7104
▁guitar	-7105
▁spoils	-7106
▁tootha	-7107
▁belongs	-7108
▁enthusi	-7109
rganizing	-7110
▁Celebrat	-7111
▁bacteria	-7112
▁damaging	-7113
▁heighten	-7114
▁mechanic	-7115
▁monsters	-7116
▁passions	-7117
▁foolishly	-7118
▁promising	-7119
▁raindrops	-7120
ooks	-7121
▁spee	-7122
▁cross	-7123
▁greed	-7124
▁sacri	-7125
▁Cotton	-7126
▁digest	-7127
▁sorted	-7128
alancing	-7129
▁blossom	-7130
▁crushing	-7131
▁acknowled	-7132
▁functions	-7133
▁filmmakers	-7134
▁uncheerful	-7135
▁flexibility	-7136
▁overshadowed	-7137
▁Ra	-7138
▁Hot	-7139
ellow	-7140
hable	-7141
neath	-7142
▁fuel	-7143
▁lazy	-7144
anging	-7145
▁cases	-7146
▁Cheese	-7147
▁Yellow	-7148
ncertain	-7149
▁colours	-7150
▁heading	-7151
▁sorting	-7152
▁Feelings	-7153
▁gloomier	-7154
▁original	-7155
▁preserve	-7156
▁smelling	-7157
▁vastness	-7158
▁sculpture	-7159
▁influenced	-7160
▁terrifying	-7161
▁underneath	-7162
ex	-7163
nt	-7164
ism	-7165
nds	-7166
oop	-7167
▁bay	-7168
▁Stea	-7169
▁coco	-7170
▁leak	-7171
▁unhy	-7172
▁bikes	-7173
▁dread	-7174
▁ovens	-7175
▁wrapp	-7176
▁Horses	-7177
▁lifted	-7178
▁Raising	-7179
▁enlight	-7180
▁Colorful	-7181
▁explored	-7182
▁positions	-7183
▁stretched	-7184
▁energizing	-7185
▁unhappiness	-7186
▁Hu	-7187
osal	-7188
▁sofa	-7189
lessly	-7190
▁cozier	-7191
▁vision	-7192
▁Mapping	-7193
▁degrees	-7194
▁threats	-7195
▁concerts	-7196
▁belonging	-7197
▁profession	-7198
▁lighthearted	-7199
▁thoughtlessly	-7200
▁thoughtfulness	-7201
aws	-7202
osen	-7203
▁Mov	-7204
▁cap	-7205
▁tid	-7206
bered	-7207
▁sunr	-7208
▁tune	-7209
gienic	-7210
▁usage	-7211
▁mining	-7212
▁debates	-7213
▁feather	-7214
▁ordered	-7215
▁entrance	-7216
▁incident	-7217
▁toothache	-7218
▁preserving	-7219
▁collections	-7220
▁complaining	-7221
▁impressions	-7222
het	-7223
aste	-7224
▁sod	-7225
ilots	-7226
▁Mess	-7227
▁hund	-7228
▁nets	-7229
▁vict	-7230
mbered	-7231
▁faith	-7232
▁restr	-7233
▁swing	-7234
▁amazes	-7235
▁bursts	-7236
▁fruity	-7237
▁overfl	-7238
▁rested	-7239
▁harvest	-7240
▁captures	-7241
▁comedies	-7242
▁escaping	-7243
▁striking	-7244
ncertainty	-7245
▁remembered	-7246
▁enlightening	-7247
▁lie	-7248
▁nap	-7249
▁tar	-7250
ppies	-7251
▁math	-7252
▁alarm	-7253
▁dates	-7254
▁slice	-7255
▁stall	-7256
▁terms	-7257
▁appeal	-7258
▁cheers	-7259
▁chosen	-7260
▁costly	-7261
▁folded	-7262
▁sacrif	-7263
▁signal	-7264
▁cameras	-7265
▁cheeses	-7266
▁decides	-7267
▁flutter	-7268
▁kissing	-7269
▁remedies	-7270
▁wellness	-7271
▁collected	-7272
▁generally	-7273
▁industries	-7274
▁photograph	-7275
▁contributes	-7276
isc	-7277
umpy	-7278
▁non	-7279
ashes	-7280
ropri	-7281
▁Alex	-7282
belief	-7283
▁beats	-7284
▁Movies	-7285
▁buyers	-7286
▁poetry	-7287
▁rolled	-7288
▁worksh	-7289
▁insight	-7290
▁bathroom	-7291
▁limiting	-7292
▁comforted	-7293
▁musicians	-7294
▁accessories	-7295
io	-7296
asm	-7297
lew	-7298
rot	-7299
▁Tot	-7300
▁arom	-7301
▁flew	-7302
▁balls	-7303
▁heals	-7304
▁swift	-7305
▁tends	-7306
looking	-7307
▁adapts	-7308
▁catchy	-7309
▁cookie	-7310
▁divide	-7311
▁floods	-7312
▁kicked	-7313
▁uneven	-7314
▁wealth	-7315
▁Dancing	-7316
▁Improve	-7317
▁Totally	-7318
▁chewing	-7319
▁slipped	-7320
▁snowman	-7321
▁stubbed	-7322
▁dolphins	-7323
▁promotes	-7324
▁disrupted	-7325
▁involving	-7326
▁accessible	-7327
▁critically	-7328
▁unhygienic	-7329
▁perceptions	-7330
▁et	-7331
aign	-7332
▁ath	-7333
▁none	-7334
▁pepp	-7335
▁soda	-7336
▁warn	-7337
▁Humor	-7338
▁reset	-7339
▁packed	-7340
▁staring	-7341
▁sweetly	-7342
▁arriving	-7343
▁attracts	-7344
▁cultural	-7345
▁enhances	-7346
▁findings	-7347
▁restrict	-7348
onsiderate	-7349
▁designers	-7350
information	-7351
▁durability	-7352
▁disagreement	-7353
unte	-7354
vere	-7355
▁Man	-7356
▁echo	-7357
▁pink	-7358
▁wrap	-7359
▁recyc	-7360
lasting	-7361
manship	-7362
▁Autumn	-7363
▁direct	-7364
▁routes	-7365
▁switch	-7366
▁clarify	-7367
▁updated	-7368
▁advocate	-7369
▁campaign	-7370
▁cheering	-7371
▁disbelief	-7372
▁festivals	-7373
▁patiently	-7374
▁producing	-7375
▁rainstorm	-7376
▁realities	-7377
▁performers	-7378
▁electricity	-7379
abb	-7380
com	-7381
▁ast	-7382
▁sip	-7383
gress	-7384
▁poss	-7385
▁sits	-7386
▁upon	-7387
▁Water	-7388
▁repet	-7389
▁arises	-7390
▁drying	-7391
▁filthy	-7392
▁severe	-7393
▁soften	-7394
▁varied	-7395
▁Falling	-7396
▁monster	-7397
▁counting	-7398
▁drifting	-7399
▁includes	-7400
▁adjusting	-7401
▁isolating	-7402
▁difficulty	-7403
▁gloominess	-7404
▁healthcare	-7405
▁professionals	-7406
▁understandings	-7407
eats	-7408
▁und	-7409
▁date	-7410
▁dough	-7411
▁handy	-7412
▁waits	-7413
▁interc	-7414
▁liking	-7415
▁shower	-7416
▁protects	-7417
▁wrappers	-7418
▁irritated	-7419
▁captivating	-7420
▁embarrassing	-7421
▁interconnected	-7422
▁misinformation	-7423
att	-7424
ower	-7425
▁Dig	-7426
▁crew	-7427
▁mild	-7428
ardens	-7429
mbling	-7430
ossing	-7431
▁Relax	-7432
▁blind	-7433
▁cocoa	-7434
▁optim	-7435
▁soggy	-7436
▁stale	-7437
▁arches	-7438
▁double	-7439
▁formed	-7440
▁grumpy	-7441
▁melted	-7442
▁messed	-7443
▁popping	-7444
▁notebook	-7445
▁respects	-7446
▁demanding	-7447
▁persistent	-7448
▁pretending	-7449
▁seriousness	-7450
▁willingness	-7451
▁inconsiderate	-7452
▁irresponsible	-7453
we	-7454
bly	-7455
ixt	-7456
oul	-7457
bble	-7458
gues	-7459
hill	-7460
ooth	-7461
ware	-7462
▁pha	-7463
▁rad	-7464
ators	-7465
▁Inse	-7466
▁scra	-7467
mother	-7468
nowing	-7469
▁bumps	-7470
▁blocks	-7471
▁dances	-7472
▁device	-7473
▁relive	-7474
▁unused	-7475
▁archite	-7476
▁greener	-7477
▁session	-7478
▁stepped	-7479
▁tidying	-7480
▁volunte	-7481
▁homework	-7482
▁loudness	-7483
▁produces	-7484
▁recycled	-7485
▁coworkers	-7486
▁complexity	-7487
▁convenient	-7488
▁enthusiasm	-7489
▁innovations	-7490
▁compassionate	-7491
gr	-7492
rs	-7493
ars	-7494
lus	-7495
ccer	-7496
ilty	-7497
▁Fru	-7498
▁Rec	-7499
▁tit	-7500
▁Comp	-7501
▁cave	-7502
▁fort	-7503
▁lamp	-7504
▁rabb	-7505
▁torn	-7506
▁broad	-7507
▁ideal	-7508
▁ticks	-7509
▁trail	-7510
vesting	-7511
▁Recogn	-7512
▁chains	-7513
▁guilty	-7514
▁proced	-7515
▁rubber	-7516
▁soccer	-7517
▁solved	-7518
▁Insects	-7519
▁Shouldn	-7520
▁Smoking	-7521
▁cycling	-7522
▁disposal	-7523
▁replaced	-7524
▁Traveling	-7525
▁photography	-7526
▁troublesome	-7527
scre	-7528
▁Cra	-7529
▁alb	-7530
▁pee	-7531
▁plu	-7532
lling	-7533
▁Care	-7534
▁carp	-7535
▁chir	-7536
▁user	-7537
filled	-7538
ubbing	-7539
▁spell	-7540
▁wrote	-7541
▁couple	-7542
▁critic	-7543
▁dampen	-7544
▁famous	-7545
▁absence	-7546
▁grazing	-7547
▁reveals	-7548
▁sunrise	-7549
▁Darkness	-7550
▁Managing	-7551
▁toughest	-7552
▁Educating	-7553
▁noticeable	-7554
spo	-7555
ctic	-7556
▁maj	-7557
▁shr	-7558
▁dece	-7559
▁harb	-7560
▁link	-7561
▁nest	-7562
▁sund	-7563
▁vegg	-7564
ifying	-7565
▁erase	-7566
▁lived	-7567
▁scrap	-7568
▁slows	-7569
▁cloths	-7570
▁models	-7571
▁pillow	-7572
▁trades	-7573
finished	-7574
▁aggress	-7575
▁blocked	-7576
▁returned	-7577
▁stranger	-7578
▁unsatisf	-7579
▁generation	-7580
▁selections	-7581
▁grandmother	-7582
▁technologies	-7583
if	-7584
shm	-7585
leep	-7586
lets	-7587
osed	-7588
▁Ign	-7589
▁fro	-7590
urbul	-7591
▁Then	-7592
active	-7593
screen	-7594
▁unspo	-7595
▁asleep	-7596
▁histor	-7597
▁pilots	-7598
▁savory	-7599
▁speech	-7600
▁theirs	-7601
▁sundown	-7602
▁Ignoring	-7603
▁articles	-7604
▁distress	-7605
▁haunting	-7606
▁homemade	-7607
▁managers	-7608
▁addressed	-7609
▁completing	-7610
▁disappeared	-7611
▁unrealistic	-7612
bee	-7613
▁ge	-7614
prov	-7615
ured	-7616
isbee	-7617
▁unac	-7618
▁Money	-7619
▁Young	-7620
▁bland	-7621
▁plots	-7622
▁poems	-7623
▁sails	-7624
▁Clouds	-7625
▁biking	-7626
▁intell	-7627
▁orders	-7628
▁pinned	-7629
▁article	-7630
▁females	-7631
▁hairsty	-7632
▁sharper	-7633
▁spiders	-7634
provoking	-7635
▁artworks	-7636
▁dullness	-7637
▁hesitant	-7638
▁selfishly	-7639
▁colleagues	-7640
▁efficiency	-7641
▁trustworthy	-7642
uss	-7643
▁Fr	-7644
▁led	-7645
▁sat	-7646
usive	-7647
▁init	-7648
racing	-7649
▁acids	-7650
▁align	-7651
▁couch	-7652
▁crave	-7653
▁showc	-7654
▁units	-7655
▁fuller	-7656
▁morale	-7657
▁scraps	-7658
▁boredom	-7659
▁partner	-7660
consuming	-7661
▁advanced	-7662
▁intellig	-7663
▁previous	-7664
▁Surprises	-7665
▁adaptable	-7666
▁scientific	-7667
oof	-7668
ology	-7669
ously	-7670
▁firm	-7671
▁oils	-7672
▁purs	-7673
▁bells	-7674
▁cring	-7675
▁girls	-7676
▁marshm	-7677
▁pasted	-7678
▁speaks	-7679
▁spider	-7680
▁written	-7681
▁hesitate	-7682
▁completed	-7683
▁containers	-7684
▁perception	-7685
▁sacrifices	-7686
▁unfinished	-7687
▁Celebrating	-7688
▁Discovering	-7689
▁adaptations	-7690
▁gy	-7691
ashy	-7692
elly	-7693
etch	-7694
orre	-7695
oved	-7696
▁flu	-7697
oting	-7698
▁mixt	-7699
▁pave	-7700
▁lists	-7701
▁meets	-7702
cepting	-7703
ffering	-7704
▁Dreams	-7705
▁Hallow	-7706
▁athlet	-7707
▁cringe	-7708
▁spoken	-7709
▁stalls	-7710
ishments	-7711
▁exhaust	-7712
▁sellers	-7713
▁feathers	-7714
▁investig	-7715
▁unspoken	-7716
▁vacation	-7717
▁Halloween	-7718
▁elephants	-7719
▁elsewhere	-7720
▁sunscreen	-7721
▁withstand	-7722
▁moderation	-7723
▁unfriendly	-7724
▁possessions	-7725
▁sustainability	-7726
ata	-7727
irty	-7728
▁Acc	-7729
▁ten	-7730
arily	-7731
ested	-7732
otect	-7733
▁Snow	-7734
▁snap	-7735
allows	-7736
▁mines	-7737
▁mixes	-7738
▁sorts	-7739
▁unatt	-7740
▁wraps	-7741
▁Colors	-7742
▁Things	-7743
▁bubble	-7744
▁endure	-7745
▁hectic	-7746
▁paints	-7747
▁unless	-7748
▁wooden	-7749
▁Convers	-7750
▁frisbee	-7751
▁hundred	-7752
▁vehicle	-7753
▁simplify	-7754
▁tomatoes	-7755
▁incidents	-7756
▁reassuring	-7757
▁Conversations	-7758
ari	-7759
fall	-7760
▁Del	-7761
▁cud	-7762
▁gat	-7763
▁loo	-7764
avity	-7765
ended	-7766
▁Chal	-7767
▁Silk	-7768
▁bask	-7769
▁yoga	-7770
▁revis	-7771
▁Crying	-7772
▁Saving	-7773
▁closet	-7774
▁infect	-7775
▁wallet	-7776
▁Fashion	-7777
▁Turning	-7778
▁notices	-7779
▁slither	-7780
▁throats	-7781
▁veggies	-7782
▁athletes	-7783
▁gathered	-7784
▁realizes	-7785
▁stations	-7786
▁Accepting	-7787
▁engineers	-7788
▁replacing	-7789
▁explaining	-7790
▁optimistic	-7791
▁Recognizing	-7792
▁flashlights	-7793
▁acknowledged	-7794
ews	-7795
gen	-7796
utd	-7797
bris	-7798
▁Cal	-7799
▁unh	-7800
ource	-7801
▁Clot	-7802
▁Hist	-7803
▁fees	-7804
▁spar	-7805
▁Compl	-7806
▁insec	-7807
▁pairs	-7808
otected	-7809
ronting	-7810
▁announ	-7811
▁dearly	-7812
▁debris	-7813
▁puddle	-7814
▁riverb	-7815
▁slices	-7816
▁yogurt	-7817
▁battles	-7818
▁factory	-7819
▁viewing	-7820
▁airplane	-7821
▁angering	-7822
▁clearing	-7823
▁resource	-7824
▁sounding	-7825
▁brightest	-7826
▁varieties	-7827
▁documentary	-7828
▁unprotected	-7829
▁appointments	-7830
▁automatically	-7831
▁ox	-7832
ltim	-7833
▁cas	-7834
▁coo	-7835
▁gym	-7836
▁grew	-7837
▁nour	-7838
▁pure	-7839
utdoor	-7840
▁debts	-7841
▁hooks	-7842
▁uncom	-7843
nfortun	-7844
▁driver	-7845
▁hotter	-7846
▁melody	-7847
▁sneaky	-7848
▁History	-7849
▁fearing	-7850
▁plumber	-7851
ltimately	-7852
▁bursting	-7853
▁crossing	-7854
▁mistreat	-7855
▁resonate	-7856
▁whispers	-7857
▁Accidents	-7858
▁empowered	-7859
▁nostalgia	-7860
▁stiffness	-7861
▁sandcastle	-7862
▁uniqueness	-7863
▁consistently	-7864
▁disturbances	-7865
▁dramatically	-7866
▁marshmallows	-7867
nex	-7868
ugs	-7869
illa	-7870
ined	-7871
▁exam	-7872
▁gate	-7873
▁nons	-7874
▁tape	-7875
▁thor	-7876
icated	-7877
places	-7878
▁Scary	-7879
▁Space	-7880
▁loads	-7881
▁super	-7882
iveness	-7883
nerving	-7884
▁Smiles	-7885
▁multip	-7886
▁occurs	-7887
▁visual	-7888
▁Alright	-7889
▁Rubbing	-7890
▁castles	-7891
▁evolves	-7892
▁shadowy	-7893
▁sinking	-7894
▁wilting	-7895
urbulence	-7896
▁Frustrat	-7897
▁Inviting	-7898
▁chirping	-7899
▁creation	-7900
▁pavement	-7901
▁enriching	-7902
▁sensation	-7903
▁independent	-7904
▁interrupted	-7905
▁unpleasantness	-7906
ph	-7907
down	-7908
umes	-7909
▁App	-7910
▁Rep	-7911
▁ine	-7912
▁Farm	-7913
▁hunt	-7914
▁rubs	-7915
cessed	-7916
illing	-7917
oiling	-7918
▁blown	-7919
▁dying	-7920
▁faded	-7921
▁noted	-7922
▁arming	-7923
▁dresses	-7924
▁justice	-7925
▁wetness	-7926
nexpected	-7927
▁Relaxing	-7928
▁barbecue	-7929
▁instinct	-7930
▁nonsense	-7931
▁talented	-7932
▁tensions	-7933
▁factories	-7934
▁processed	-7935
▁aggressive	-7936
▁celebrated	-7937
▁passionate	-7938
▁workplaces	-7939
▁commitments	-7940
▁meaningfully	-7941
tes	-7942
▁lu	-7943
ason	-7944
bing	-7945
rust	-7946
▁fib	-7947
▁	-7948
e	-7949
t	-7950
a	-7951
o	-7952
n	-7953
s	-7954
i	-7955
r	-7956
h	-7957
l	-7958
d	-7959
u	-7960
g	-7961
y	-7962
m	-7963
c	-7964
f	-7965
w	-7966
p	-7967
b	-7968
k	-7969
.	-7970
,	-7971
I	-7972
v	-7973
j	-7974
Y	-7975
?	-7976
T	-7977
x	-7978
D	-7979
H	-7980
q	-7981
W	-7982
;	-7983
'	-7984
S	-7985
A	-7986
M	-7987
z	-7988
F	-7989
E	-7990
R	-7991
’	-7992
C	-7993
