<pad>	0
<s>	0
</s>	0
<unk>	0
[INST]	0
[/INST]	0
▁t	-0
in	-1
▁a	-2
▁s	-3
he	-4
▁w	-5
ou	-6
▁f	-7
ing	-8
es	-9
▁c	-10
nd	-11
re	-12
▁i	-13
▁m	-14
ha	-15
er	-16
▁b	-17
▁I	-18
ee	-19
▁to	-20
an	-21
▁the	-22
or	-23
▁d	-24
▁l	-25
▁and	-26
on	-27
▁fee	-28
▁feel	-29
en	-30
ll	-31
▁p	-32
it	-33
ay	-34
▁can	-35
▁th	-36
om	-37
ea	-38
▁u	-39
hat	-40
et	-41
▁is	-42
▁it	-43
▁n	-44
le	-45
▁o	-46
▁y	-47
st	-48
▁you	-49
at	-50
▁in	-51
ow	-52
▁e	-53
ke	-54
is	-55
▁ha	-56
out	-57
gh	-58
▁he	-59
▁h	-60
▁li	-61
▁g	-62
▁be	-63
ver	-64
▁we	-65
ve	-66
al	-67
▁re	-68
▁ma	-69
se	-70
ght	-71
our	-72
ic	-73
▁of	-74
im	-75
ly	-76
ar	-77
op	-78
▁that	-79
ct	-80
▁our	-81
▁Y	-82
ut	-83
ld	-84
oo	-85
▁It	-86
▁ab	-87
ings	-88
▁about	-89
▁Yes	-90
▁for	-91
ot	-92
▁st	-93
all	-94
▁whe	-95
▁do	-96
▁som	-97
▁when	-98
▁su	-99
▁T	-100
pp	-101
lp	-102
▁help	-103
▁us	-104
ind	-105
very	-106
ess	-107
her	-108
ink	-109
nder	-110
ri	-111
ter	-112
▁think	-113
ul	-114
ad	-115
▁see	-116
ed	-117
▁like	-118
ion	-119
ore	-120
oy	-121
▁so	-122
ould	-123
ch	-124
▁how	-125
ent	-126
▁j	-127
ir	-128
ally	-129
ust	-130
ound	-131
▁on	-132
ear	-133
ith	-134
▁with	-135
ful	-136
id	-137
ce	-138
▁That	-139
▁not	-140
ant	-141
ort	-142
fe	-143
eop	-144
eople	-145
imes	-146
▁more	-147
ood	-148
▁people	-149
ays	-150
pe	-151
▁happ	-152
▁en	-153
▁every	-154
ng	-155
▁un	-156
▁me	-157
▁but	-158
▁make	-159
▁mak	-160
▁my	-161
ring	-162
▁somet	-163
▁D	-164
and	-165
▁k	-166
ther	-167
▁tr	-168
▁are	-169
day	-170
▁H	-171
▁wor	-172
▁r	-173
▁bet	-174
▁under	-175
▁things	-176
ci	-177
ill	-178
hing	-179
▁Do	-180
▁fr	-181
qu	-182
mp	-183
stand	-184
▁better	-185
▁understand	-186
▁sh	-187
▁this	-188
one	-189
▁pl	-190
▁com	-191
▁cha	-192
▁today	-193
reat	-194
▁really	-195
▁sound	-196
joy	-197
▁enjoy	-198
▁makes	-199
right	-200
▁find	-201
▁feelings	-202
king	-203
▁al	-204
▁imp	-205
▁some	-206
▁they	-207
ope	-208
▁qu	-209
ite	-210
▁ex	-211
▁ne	-212
▁sounds	-213
ight	-214
▁W	-215
ble	-216
▁an	-217
ell	-218
ove	-219
ol	-220
▁hope	-221
ies	-222
▁have	-223
any	-224
▁good	-225
▁sha	-226
▁seem	-227
ime	-228
ions	-229
ain	-230
as	-231
▁sad	-232
▁wo	-233
▁wonder	-234
ure	-235
▁sometimes	-236
▁wh	-237
▁sm	-238
▁time	-239
ice	-240
un	-241
ting	-242
▁out	-243
▁har	-244
▁your	-245
▁or	-246
peci	-247
▁just	-248
▁day	-249
▁will	-250
▁chang	-251
get	-252
▁ev	-253
▁di	-254
▁way	-255
au	-256
ents	-257
▁pr	-258
pr	-259
▁sur	-260
▁dis	-261
are	-262
▁sp	-263
▁fear	-264
▁joy	-265
▁at	-266
eep	-267
▁hard	-268
▁con	-269
ide	-270
▁feeling	-271
▁their	-272
eas	-273
▁sa	-274
▁other	-275
▁very	-276
us	-277
▁import	-278
ello	-279
▁Hello	-280
▁ag	-281
▁tal	-282
ffe	-283
ten	-284
▁if	-285
ac	-286
ry	-287
▁could	-288
ong	-289
▁feels	-290
ur	-291
ose	-292
gether	-293
▁important	-294
▁str	-295
▁happy	-296
os	-297
▁even	-298
▁ta	-299
▁am	-300
pris	-301
▁surpris	-302
ness	-303
▁many	-304
▁often	-305
▁together	-306
ely	-307
▁mom	-308
▁S	-309
▁love	-310
▁thou	-311
▁all	-312
▁there	-313
▁es	-314
▁bright	-315
ge	-316
ause	-317
▁everyone	-318
▁ar	-319
▁bec	-320
▁what	-321
▁as	-322
av	-323
▁new	-324
▁thought	-325
pecially	-326
▁especially	-327
▁nice	-328
▁should	-329
ish	-330
▁days	-331
side	-332
▁up	-333
ive	-334
▁bit	-335
▁does	-336
th	-337
ves	-338
ook	-339
ead	-340
ree	-341
▁bring	-342
▁keep	-343
▁would	-344
▁cl	-345
▁moments	-346
thing	-347
▁quite	-348
eed	-349
ren	-350
ways	-351
ough	-352
▁always	-353
▁A	-354
eather	-355
▁want	-356
able	-357
▁creat	-358
▁M	-359
▁sun	-360
ard	-361
▁change	-362
▁because	-363
▁small	-364
▁ea	-365
▁go	-366
▁helps	-367
ie	-368
▁weather	-369
▁id	-370
art	-371
▁these	-372
▁from	-373
▁seems	-374
▁such	-375
▁might	-376
▁mu	-377
▁fun	-378
▁them	-379
lect	-380
fort	-381
il	-382
act	-383
▁everything	-384
ick	-385
▁too	-386
rat	-387
▁those	-388
me	-389
▁act	-390
▁something	-391
pect	-392
▁life	-393
▁much	-394
est	-395
ue	-396
▁talk	-397
flect	-398
▁nat	-399
ark	-400
▁bad	-401
ast	-402
ace	-403
▁try	-404
▁sc	-405
ers	-406
▁wish	-407
pl	-408
▁others	-409
end	-410
tle	-411
▁lit	-412
fferen	-413
▁differen	-414
▁agree	-415
▁pro	-416
▁ang	-417
▁br	-418
▁outside	-419
▁around	-420
▁great	-421
ile	-422
ig	-423
lean	-424
ories	-425
▁du	-426
ect	-427
ate	-428
ustrat	-429
▁little	-430
▁over	-431
▁frustrat	-432
▁plan	-433
bs	-434
▁care	-435
iness	-436
▁need	-437
▁pos	-438
▁share	-439
▁ch	-440
▁de	-441
▁What	-442
han	-443
ft	-444
now	-445
▁v	-446
riend	-447
oc	-448
▁gr	-449
▁bea	-450
▁during	-451
orm	-452
▁friend	-453
ation	-454
▁look	-455
olut	-456
olutely	-457
▁any	-458
▁times	-459
ous	-460
bsolutely	-461
▁Absolutely	-462
▁was	-463
▁clean	-464
ity	-465
▁stay	-466
hy	-467
▁nature	-468
eri	-469
▁surprising	-470
▁beaut	-471
ving	-472
▁heav	-473
▁happen	-474
ment	-475
▁wonderful	-476
arm	-477
▁less	-478
be	-479
▁Som	-480
▁get	-481
its	-482
gust	-483
▁disgust	-484
▁create	-485
▁aw	-486
▁idea	-487
▁ways	-488
▁ever	-489
▁now	-490
▁frustrating	-491
▁light	-492
ors	-493
▁inter	-494
▁heavy	-495
▁co	-496
▁thoughts	-497
▁fl	-498
▁making	-499
ack	-500
▁work	-501
▁right	-502
iting	-503
earn	-504
iv	-505
▁happiness	-506
▁lovely	-507
▁by	-508
▁Why	-509
▁sadness	-510
▁food	-511
am	-512
ier	-513
esting	-514
lie	-515
▁know	-516
▁warm	-517
▁Somet	-518
▁Sometimes	-519
mb	-520
▁angry	-521
▁big	-522
▁app	-523
aybe	-524
▁comm	-525
flecting	-526
▁posit	-527
▁af	-528
▁learn	-529
▁each	-530
▁while	-531
▁sharing	-532
▁take	-533
▁mind	-534
▁heal	-535
▁tough	-536
▁friends	-537
▁lead	-538
▁belie	-539
ff	-540
ily	-541
▁che	-542
▁soon	-543
ds	-544
▁F	-545
▁interesting	-546
ine	-547
▁exp	-548
▁How	-549
▁wat	-550
ome	-551
▁different	-552
▁E	-553
▁sim	-554
▁comfort	-555
ms	-556
set	-557
▁positive	-558
ffect	-559
▁again	-560
▁kind	-561
▁strong	-562
▁than	-563
▁wal	-564
▁believe	-565
mber	-566
ange	-567
▁lives	-568
aces	-569
▁ad	-570
nect	-571
ps	-572
▁cal	-573
▁calm	-574
▁inst	-575
ple	-576
▁mem	-577
member	-578
▁res	-579
▁lift	-580
ult	-581
▁rel	-582
▁connect	-583
▁brings	-584
▁safe	-585
erien	-586
ward	-587
▁experien	-588
▁without	-589
▁changes	-590
▁fut	-591
ary	-592
▁future	-593
▁mo	-594
▁beauti	-595
▁R	-596
own	-597
▁world	-598
ations	-599
sel	-600
age	-601
ared	-602
▁dark	-603
▁spir	-604
▁health	-605
ities	-606
▁sit	-607
so	-608
ces	-609
▁also	-610
ag	-611
▁supp	-612
eal	-613
▁has	-614
▁instead	-615
▁fears	-616
▁foc	-617
▁true	-618
▁did	-619
▁beautiful	-620
▁after	-621
▁The	-622
▁mood	-623
▁remember	-624
▁Many	-625
de	-626
ny	-627
▁rem	-628
▁down	-629
▁simple	-630
▁memories	-631
ices	-632
▁quick	-633
▁talking	-634
ert	-635
▁disc	-636
▁being	-637
▁speci	-638
eace	-639
▁strange	-640
▁peace	-641
▁sk	-642
ull	-643
▁well	-644
▁away	-645
▁spirits	-646
▁why	-647
ffic	-648
oom	-649
iz	-650
reci	-651
▁unc	-652
▁hear	-653
▁special	-654
▁gu	-655
▁op	-656
als	-657
▁focus	-658
ich	-659
▁eas	-660
▁lat	-661
whe	-662
▁cho	-663
ave	-664
▁Ex	-665
▁col	-666
▁grow	-667
▁no	-668
▁upset	-669
▁scared	-670
actly	-671
fficult	-672
▁difficult	-673
▁remind	-674
▁disgusted	-675
▁brighter	-676
▁play	-677
▁support	-678
▁dr	-679
▁long	-680
to	-681
▁Re	-682
ist	-683
▁bl	-684
▁appreci	-685
▁which	-686
▁expect	-687
ise	-688
ax	-689
▁Exactly	-690
ild	-691
▁walk	-692
▁affect	-693
▁park	-694
▁situ	-695
▁worry	-696
red	-697
ooking	-698
▁gl	-699
▁exc	-700
esh	-701
▁still	-702
▁show	-703
▁heart	-704
▁worri	-705
not	-706
inding	-707
▁impr	-708
▁proble	-709
▁quickly	-710
▁relax	-711
▁Finding	-712
si	-713
▁stories	-714
▁read	-715
▁clear	-716
▁se	-717
▁use	-718
▁appreciate	-719
▁commun	-720
▁norm	-721
ance	-722
ening	-723
▁normal	-724
uly	-725
▁understanding	-726
▁fresh	-727
urn	-728
▁truly	-729
▁C	-730
ching	-731
▁saf	-732
▁bu	-733
avor	-734
▁rain	-735
▁made	-736
▁activ	-737
▁sen	-738
▁thr	-739
▁into	-740
oin	-741
▁sl	-742
llen	-743
▁let	-744
▁fearful	-745
▁sunny	-746
xt	-747
▁challen	-748
een	-749
▁air	-750
▁Maybe	-751
▁wee	-752
du	-753
▁wr	-754
▁night	-755
ty	-756
▁ideas	-757
app	-758
▁scary	-759
▁start	-760
▁sense	-761
▁come	-762
▁bot	-763
▁cannot	-764
▁Reflecting	-765
▁one	-766
▁ind	-767
▁mess	-768
▁reflect	-769
▁choices	-770
▁places	-771
▁guess	-772
ak	-773
▁favor	-774
▁don	-775
▁env	-776
iron	-777
▁environ	-778
▁improve	-779
▁list	-780
▁difference	-781
▁thinking	-782
▁next	-783
▁cheer	-784
ck	-785
ix	-786
▁challeng	-787
▁favorite	-788
▁tast	-789
▁inside	-790
▁bo	-791
▁someone	-792
▁back	-793
▁une	-794
pected	-795
ertain	-796
▁actions	-797
az	-798
▁having	-799
▁car	-800
▁enjoyable	-801
▁unex	-802
▁environment	-803
▁tea	-804
ety	-805
▁pre	-806
▁flow	-807
el	-808
▁activities	-809
ious	-810
fin	-811
fore	-812
▁before	-813
kay	-814
▁compl	-815
wn	-816
lic	-817
▁okay	-818
itely	-819
▁des	-820
pend	-821
▁place	-822
▁last	-823
finitely	-824
▁problems	-825
▁amaz	-826
▁expl	-827
▁lea	-828
mot	-829
▁L	-830
▁mat	-831
▁real	-832
▁cr	-833
▁unexpected	-834
▁ste	-835
▁off	-836
▁lately	-837
oud	-838
▁space	-839
▁ho	-840
▁surprised	-841
sh	-842
▁finding	-843
▁reflecting	-844
▁may	-845
easant	-846
ures	-847
ning	-848
▁iss	-849
▁maybe	-850
▁wind	-851
▁through	-852
▁sol	-853
▁alone	-854
▁happier	-855
▁isn	-856
▁You	-857
▁anim	-858
les	-859
ence	-860
▁sw	-861
sible	-862
selves	-863
▁inv	-864
▁its	-865
▁here	-866
▁amazing	-867
eet	-868
ling	-869
▁lo	-870
▁per	-871
▁colors	-872
▁P	-873
▁Have	-874
▁been	-875
▁same	-876
▁news	-877
▁mis	-878
ming	-879
▁end	-880
▁minds	-881
▁dir	-882
▁experiences	-883
hank	-884
▁brighten	-885
▁Thank	-886
gg	-887
▁storm	-888
▁cold	-889
▁worries	-890
▁forward	-891
▁complet	-892
ap	-893
ass	-894
▁anger	-895
▁face	-896
shine	-897
▁deep	-898
▁bre	-899
▁wa	-900
▁emot	-901
▁joyful	-902
▁enjoying	-903
ues	-904
▁fam	-905
▁plans	-906
▁understandable	-907
▁going	-908
▁who	-909
▁flowers	-910
vers	-911
▁cheerful	-912
▁beauty	-913
▁saw	-914
▁old	-915
▁sec	-916
▁open	-917
▁da	-918
▁kindness	-919
▁turn	-920
iet	-921
easy	-922
▁rec	-923
air	-924
ical	-925
▁sunshine	-926
▁uneasy	-927
▁animals	-928
head	-929
▁sky	-930
▁water	-931
whel	-932
▁overwhel	-933
▁had	-934
ory	-935
sing	-936
ully	-937
ize	-938
▁experience	-939
▁quiet	-940
▁ahead	-941
hes	-942
▁att	-943
row	-944
▁gard	-945
▁discus	-946
▁emotions	-947
▁healthy	-948
▁pat	-949
ks	-950
▁learning	-951
▁Th	-952
ool	-953
▁both	-954
▁build	-955
▁own	-956
▁meal	-957
▁happening	-958
▁mus	-959
oor	-960
ked	-961
ffort	-962
▁situation	-963
▁effort	-964
▁lot	-965
▁conf	-966
ire	-967
▁taking	-968
▁tre	-969
▁looks	-970
ang	-971
igh	-972
▁plant	-973
▁pic	-974
▁sure	-975
▁hearts	-976
▁man	-977
▁daily	-978
▁gloom	-979
▁joys	-980
▁ourselves	-981
▁trying	-982
▁issues	-983
▁unpl	-984
▁exciting	-985
▁unk	-986
▁We	-987
come	-988
▁ease	-989
▁stre	-990
▁moment	-991
▁cause	-992
▁dirty	-993
▁never	-994
▁cont	-995
▁bus	-996
ts	-997
▁notic	-998
▁common	-999
ne	-1000
cess	-1001
ually	-1002
▁val	-1003
▁upsetting	-1004
▁hand	-1005
▁lau	-1006
▁lighten	-1007
▁book	-1008
▁av	-1009
▁wrong	-1010
▁garden	-1011
round	-1012
▁spend	-1013
aking	-1014
▁gloomy	-1015
▁best	-1016
▁year	-1017
▁pain	-1018
▁smell	-1019
sp	-1020
▁completely	-1021
self	-1022
gy	-1023
▁past	-1024
gn	-1025
▁safety	-1026
fully	-1027
▁music	-1028
ows	-1029
▁comp	-1030
▁dec	-1031
▁part	-1032
▁ac	-1033
where	-1034
▁shin	-1035
▁tri	-1036
▁break	-1037
▁home	-1038
▁vis	-1039
▁noticed	-1040
▁week	-1041
▁pu	-1042
▁helpful	-1043
oun	-1044
haps	-1045
▁art	-1046
▁convers	-1047
oors	-1048
ake	-1049
▁heard	-1050
den	-1051
light	-1052
▁doesn	-1053
mor	-1054
▁near	-1055
oose	-1056
▁disgusting	-1057
▁respect	-1058
▁smile	-1059
▁sn	-1060
▁loud	-1061
ouds	-1062
▁surround	-1063
▁wel	-1064
ip	-1065
ject	-1066
▁fix	-1067
▁fright	-1068
▁shows	-1069
▁community	-1070
▁clouds	-1071
▁easier	-1072
▁ann	-1073
estion	-1074
▁hold	-1075
▁move	-1076
▁resp	-1077
▁surprises	-1078
▁drink	-1079
ash	-1080
▁outd	-1081
▁family	-1082
▁B	-1083
▁overwhelming	-1084
▁annoy	-1085
ural	-1086
omfort	-1087
▁pers	-1088
▁unpleasant	-1089
▁unf	-1090
press	-1091
▁keeping	-1092
▁ti	-1093
acing	-1094
▁worse	-1095
olve	-1096
oid	-1097
▁forget	-1098
▁ru	-1099
▁lost	-1100
ra	-1101
▁stress	-1102
▁avoid	-1103
▁possible	-1104
▁adv	-1105
▁must	-1106
▁situations	-1107
▁explore	-1108
▁cooking	-1109
over	-1110
▁express	-1111
▁ener	-1112
▁looking	-1113
▁cons	-1114
▁yes	-1115
▁natural	-1116
▁challenges	-1117
ign	-1118
▁disapp	-1119
▁using	-1120
▁wast	-1121
ments	-1122
ating	-1123
▁staying	-1124
▁dist	-1125
▁slow	-1126
ail	-1127
terday	-1128
ons	-1129
▁solut	-1130
▁watching	-1131
▁most	-1132
▁surprise	-1133
erv	-1134
▁wise	-1135
▁anx	-1136
▁tas	-1137
kes	-1138
▁yesterday	-1139
▁stick	-1140
▁definitely	-1141
▁add	-1142
▁enc	-1143
sed	-1144
▁ro	-1145
▁discuss	-1146
▁safer	-1147
▁everywhere	-1148
▁le	-1149
▁full	-1150
▁trees	-1151
▁listen	-1152
▁conc	-1153
▁el	-1154
▁involve	-1155
▁mean	-1156
read	-1157
▁spaces	-1158
li	-1159
▁welcome	-1160
▁uncertain	-1161
▁stru	-1162
▁respon	-1163
duce	-1164
ud	-1165
▁St	-1166
▁im	-1167
▁where	-1168
morrow	-1169
▁tomorrow	-1170
▁reading	-1171
▁effect	-1172
▁unw	-1173
▁Those	-1174
▁peaceful	-1175
▁plants	-1176
▁events	-1177
▁hur	-1178
▁color	-1179
ourage	-1180
ab	-1181
▁surroundings	-1182
▁gets	-1183
ems	-1184
▁discover	-1185
▁involved	-1186
▁seeing	-1187
hang	-1188
▁bir	-1189
▁energy	-1190
▁disappoin	-1191
▁words	-1192
▁ri	-1193
▁lighter	-1194
▁taste	-1195
▁annoying	-1196
▁ign	-1197
▁playing	-1198
▁indeed	-1199
▁insp	-1200
▁top	-1201
▁trou	-1202
ets	-1203
form	-1204
▁anxious	-1205
ince	-1206
▁sweet	-1207
▁frightening	-1208
▁unfair	-1209
▁prop	-1210
▁since	-1211
▁busy	-1212
▁Did	-1213
▁impact	-1214
▁anyone	-1215
res	-1216
▁delic	-1217
▁facing	-1218
▁realize	-1219
▁treat	-1220
▁certain	-1221
▁uncomfort	-1222
▁notice	-1223
ather	-1224
erious	-1225
ame	-1226
▁were	-1227
▁she	-1228
▁say	-1229
▁waste	-1230
▁jour	-1231
▁aware	-1232
▁warmth	-1233
▁chat	-1234
alking	-1235
▁imag	-1236
kend	-1237
▁hab	-1238
less	-1239
▁reas	-1240
ention	-1241
▁weekend	-1242
ach	-1243
▁become	-1244
fect	-1245
ises	-1246
▁challenging	-1247
▁waiting	-1248
▁watch	-1249
▁deal	-1250
▁doing	-1251
▁walking	-1252
▁uncomfortable	-1253
ney	-1254
▁thank	-1255
▁journey	-1256
▁fel	-1257
▁felt	-1258
▁bal	-1259
▁dang	-1260
oring	-1261
iew	-1262
ount	-1263
hed	-1264
▁pow	-1265
oss	-1266
aw	-1267
ivity	-1268
▁matter	-1269
▁ones	-1270
▁hopeful	-1271
raid	-1272
▁perfect	-1273
▁tired	-1274
▁easily	-1275
▁yet	-1276
omes	-1277
▁steps	-1278
ract	-1279
▁toward	-1280
▁later	-1281
▁listening	-1282
▁question	-1283
▁getting	-1284
mm	-1285
▁project	-1286
▁takes	-1287
▁ref	-1288
▁spending	-1289
▁rest	-1290
▁ignore	-1291
▁mov	-1292
▁usually	-1293
▁run	-1294
▁person	-1295
▁De	-1296
▁afraid	-1297
▁choose	-1298
▁careful	-1299
ated	-1300
▁tasks	-1301
▁Definitely	-1302
▁visit	-1303
▁comes	-1304
▁room	-1305
▁mor	-1306
▁view	-1307
▁serious	-1308
▁N	-1309
▁strugg	-1310
▁worried	-1311
▁low	-1312
▁mar	-1313
▁unkind	-1314
▁reg	-1315
▁mist	-1316
▁stronger	-1317
ush	-1318
▁miss	-1319
▁dri	-1320
▁messy	-1321
▁meals	-1322
▁needs	-1323
blic	-1324
▁high	-1325
▁fo	-1326
hen	-1327
▁concer	-1328
▁manage	-1329
▁public	-1330
▁tried	-1331
▁neg	-1332
▁items	-1333
ghter	-1334
▁prot	-1335
▁encourage	-1336
▁stop	-1337
aying	-1338
▁unapp	-1339
▁mix	-1340
ently	-1341
▁working	-1342
▁connected	-1343
▁habits	-1344
▁hid	-1345
pes	-1346
osp	-1347
ade	-1348
ames	-1349
▁communic	-1350
uck	-1351
▁fru	-1352
▁te	-1353
▁trash	-1354
▁uni	-1355
▁beha	-1356
▁soft	-1357
▁pol	-1358
ider	-1359
ular	-1360
▁seas	-1361
▁dog	-1362
▁weight	-1363
▁leave	-1364
▁story	-1365
▁win	-1366
mmer	-1367
▁asking	-1368
▁cur	-1369
other	-1370
▁eat	-1371
▁found	-1372
ives	-1373
akes	-1374
▁bod	-1375
▁used	-1376
▁advent	-1377
▁power	-1378
ock	-1379
▁fall	-1380
▁ear	-1381
led	-1382
▁reduce	-1383
▁breat	-1384
▁focusing	-1385
▁prep	-1386
em	-1387
▁contr	-1388
▁storms	-1389
▁step	-1390
▁keeps	-1391
▁disappointing	-1392
▁attention	-1393
▁her	-1394
▁inc	-1395
▁give	-1396
▁smoo	-1397
ited	-1398
▁refres	-1399
▁cleaning	-1400
▁fir	-1401
hange	-1402
▁happens	-1403
▁balance	-1404
▁proper	-1405
▁O	-1406
▁harder	-1407
▁solutions	-1408
ew	-1409
▁outdoors	-1410
▁overall	-1411
▁Talking	-1412
▁meet	-1413
ken	-1414
▁noises	-1415
▁child	-1416
▁else	-1417
▁fill	-1418
▁shining	-1419
▁living	-1420
▁clot	-1421
▁noise	-1422
ict	-1423
▁consider	-1424
gan	-1425
▁glad	-1426
oney	-1427
iling	-1428
▁trick	-1429
▁decis	-1430
▁conversations	-1431
ooked	-1432
▁handle	-1433
▁easy	-1434
▁control	-1435
▁cu	-1436
▁fast	-1437
▁morning	-1438
▁live	-1439
▁hurt	-1440
▁negat	-1441
▁danger	-1442
▁myself	-1443
▁harm	-1444
ru	-1445
▁vi	-1446
▁gre	-1447
▁connections	-1448
▁first	-1449
▁hu	-1450
▁coming	-1451
▁Taking	-1452
ual	-1453
vi	-1454
▁There	-1455
▁put	-1456
▁uniqu	-1457
▁spread	-1458
▁deeply	-1459
▁bro	-1460
▁shad	-1461
▁cat	-1462
idy	-1463
▁comforting	-1464
ics	-1465
oming	-1466
sib	-1467
▁reminds	-1468
▁seen	-1469
▁money	-1470
▁fin	-1471
▁games	-1472
▁pleasant	-1473
▁chan	-1474
▁behavi	-1475
▁inform	-1476
▁sticky	-1477
here	-1478
▁reason	-1479
ips	-1480
▁wear	-1481
▁unique	-1482
▁fly	-1483
▁funny	-1484
▁wet	-1485
▁choice	-1486
▁carry	-1487
▁laughter	-1488
▁winter	-1489
▁blue	-1490
▁path	-1491
▁concern	-1492
▁ready	-1493
tions	-1494
▁tou	-1495
▁pict	-1496
▁refreshing	-1497
▁tidy	-1498
ket	-1499
▁creating	-1500
▁secre	-1501
▁unexpectedly	-1502
▁smooth	-1503
▁pass	-1504
▁anything	-1505
▁inspire	-1506
osing	-1507
▁streng	-1508
▁far	-1509
▁cau	-1510
▁eating	-1511
▁protect	-1512
▁join	-1513
▁shared	-1514
▁pri	-1515
▁close	-1516
▁enough	-1517
oup	-1518
using	-1519
eeting	-1520
▁acc	-1521
ality	-1522
▁once	-1523
▁Per	-1524
▁summer	-1525
▁towards	-1526
▁snack	-1527
▁pati	-1528
▁mon	-1529
by	-1530
duc	-1531
▁free	-1532
▁pract	-1533
▁relaxed	-1534
ger	-1535
▁Ind	-1536
▁organ	-1537
ervous	-1538
▁nervous	-1539
▁event	-1540
▁ruin	-1541
▁spring	-1542
▁Indeed	-1543
▁perhaps	-1544
▁caring	-1545
▁goes	-1546
▁affects	-1547
▁kit	-1548
▁dry	-1549
ealing	-1550
▁picn	-1551
▁longer	-1552
▁Sha	-1553
▁Perhaps	-1554
▁writing	-1555
▁desp	-1556
mosp	-1557
▁atmosp	-1558
ines	-1559
▁importance	-1560
under	-1561
▁aut	-1562
▁short	-1563
▁atmosphere	-1564
▁area	-1565
▁design	-1566
ven	-1567
▁poor	-1568
▁despite	-1569
▁comfortable	-1570
▁young	-1571
▁regular	-1572
sibil	-1573
▁team	-1574
▁lone	-1575
▁only	-1576
▁rough	-1577
rp	-1578
▁birds	-1579
▁meeting	-1580
▁options	-1581
▁check	-1582
▁sharp	-1583
ream	-1584
▁cope	-1585
▁cloud	-1586
▁frustration	-1587
▁ground	-1588
▁excited	-1589
▁cook	-1590
▁secure	-1591
eat	-1592
▁Staying	-1593
▁My	-1594
▁poin	-1595
▁helping	-1596
▁moving	-1597
▁unclean	-1598
▁broken	-1599
ener	-1600
▁thick	-1601
▁wait	-1602
key	-1603
▁Tr	-1604
▁children	-1605
▁soci	-1606
zy	-1607
▁calming	-1608
▁tight	-1609
ork	-1610
▁looked	-1611
▁Let	-1612
▁delight	-1613
▁stuck	-1614
chen	-1615
▁shadows	-1616
▁tasty	-1617
▁kitchen	-1618
▁building	-1619
▁Change	-1620
▁swim	-1621
opp	-1622
▁bur	-1623
▁sleep	-1624
ase	-1625
llow	-1626
▁In	-1627
▁med	-1628
esent	-1629
▁left	-1630
▁cher	-1631
▁laugh	-1632
▁bloom	-1633
▁ju	-1634
▁unset	-1635
▁alive	-1636
▁quality	-1637
▁problem	-1638
ond	-1639
pt	-1640
▁troub	-1641
▁materi	-1642
nown	-1643
▁movie	-1644
liness	-1645
cts	-1646
▁growth	-1647
dd	-1648
▁cozy	-1649
▁wanted	-1650
ains	-1651
coming	-1652
▁properly	-1653
▁unknown	-1654
▁value	-1655
▁brightly	-1656
ature	-1657
fting	-1658
▁met	-1659
▁foods	-1660
▁Some	-1661
▁leaves	-1662
▁exploring	-1663
▁Sharing	-1664
▁uns	-1665
tling	-1666
▁clearly	-1667
▁hop	-1668
▁relaxing	-1669
▁behavior	-1670
ized	-1671
▁mixed	-1672
▁pref	-1673
▁delightful	-1674
hips	-1675
cessary	-1676
ills	-1677
▁tall	-1678
▁depend	-1679
▁books	-1680
▁shake	-1681
▁among	-1682
▁prefer	-1683
▁connection	-1684
▁responsible	-1685
ules	-1686
▁unsettling	-1687
▁react	-1688
▁unin	-1689
▁lonely	-1690
▁another	-1691
ouse	-1692
▁unhe	-1693
ife	-1694
▁unt	-1695
▁communication	-1696
▁conversation	-1697
▁river	-1698
▁recently	-1699
cin	-1700
▁det	-1701
▁reward	-1702
▁fas	-1703
▁fascin	-1704
ition	-1705
▁house	-1706
▁delicious	-1707
▁process	-1708
▁point	-1709
▁opp	-1710
▁fascinating	-1711
▁rece	-1712
ails	-1713
▁fre	-1714
▁meaning	-1715
▁driving	-1716
ned	-1717
▁snow	-1718
astic	-1719
▁strength	-1720
vel	-1721
▁changing	-1722
▁fact	-1723
▁beh	-1724
▁tool	-1725
ocking	-1726
ledge	-1727
▁behind	-1728
▁picnic	-1729
▁heat	-1730
▁decisions	-1731
▁bringing	-1732
▁song	-1733
▁curren	-1734
illy	-1735
▁snacks	-1736
▁confid	-1737
▁cherish	-1738
▁sign	-1739
▁colorful	-1740
▁polit	-1741
▁sy	-1742
▁hat	-1743
▁current	-1744
▁yourself	-1745
▁thing	-1746
▁road	-1747
▁trust	-1748
▁rules	-1749
▁unappealing	-1750
▁season	-1751
▁educ	-1752
redict	-1753
▁dam	-1754
▁moon	-1755
▁creates	-1756
▁gather	-1757
▁lack	-1758
▁secret	-1759
ches	-1760
▁nearby	-1761
▁indoors	-1762
▁nothing	-1763
▁happened	-1764
▁moods	-1765
▁bother	-1766
▁coll	-1767
ween	-1768
▁between	-1769
▁negative	-1770
der	-1771
▁Nature	-1772
▁everyday	-1773
▁pay	-1774
▁touch	-1775
▁expected	-1776
rate	-1777
▁planned	-1778
ro	-1779
▁discussions	-1780
▁chance	-1781
▁ty	-1782
ress	-1783
▁awareness	-1784
▁unwell	-1785
▁cut	-1786
▁gives	-1787
▁trave	-1788
▁sugg	-1789
▁imagin	-1790
▁red	-1791
▁planet	-1792
▁unp	-1793
▁though	-1794
▁mistakes	-1795
▁gener	-1796
▁cleaner	-1797
▁medical	-1798
▁emp	-1799
▁loved	-1800
bt	-1801
viting	-1802
iles	-1803
izing	-1804
erve	-1805
▁issue	-1806
▁healthier	-1807
▁rather	-1808
▁matters	-1809
▁political	-1810
dden	-1811
▁town	-1812
▁communities	-1813
▁sudden	-1814
▁viol	-1815
ene	-1816
▁ris	-1817
▁window	-1818
▁patience	-1819
▁G	-1820
▁sil	-1821
▁tw	-1822
▁cond	-1823
▁star	-1824
▁bodies	-1825
▁action	-1826
▁uninviting	-1827
amp	-1828
▁po	-1829
▁guide	-1830
▁bigger	-1831
▁cleanliness	-1832
▁month	-1833
ction	-1834
▁curi	-1835
▁roo	-1836
▁efforts	-1837
▁True	-1838
being	-1839
▁outdoor	-1840
▁smells	-1841
▁society	-1842
orn	-1843
lf	-1844
bb	-1845
▁sea	-1846
ses	-1847
▁famil	-1848
▁knowledge	-1849
▁hot	-1850
▁spot	-1851
▁adventure	-1852
used	-1853
▁hist	-1854
▁tell	-1855
▁rep	-1856
▁sho	-1857
▁draw	-1858
ries	-1859
▁homes	-1860
▁clothes	-1861
▁adds	-1862
▁fruit	-1863
▁bitter	-1864
aging	-1865
▁sunlight	-1866
▁delicate	-1867
work	-1868
▁valu	-1869
▁present	-1870
▁education	-1871
▁eng	-1872
▁creativity	-1873
▁game	-1874
▁dangerous	-1875
▁jump	-1876
▁cool	-1877
▁filled	-1878
▁hidden	-1879
▁produ	-1880
▁pets	-1881
▁skin	-1882
▁parks	-1883
▁vo	-1884
▁creative	-1885
▁trouble	-1886
bor	-1887
ests	-1888
orth	-1889
▁reci	-1890
▁pap	-1891
oke	-1892
chool	-1893
▁oven	-1894
▁appear	-1895
▁tools	-1896
ze	-1897
▁information	-1898
med	-1899
▁ret	-1900
▁whole	-1901
▁upli	-1902
▁smiles	-1903
▁struggle	-1904
▁sty	-1905
▁few	-1906
▁areas	-1907
ost	-1908
uel	-1909
▁losing	-1910
▁history	-1911
▁school	-1912
▁dust	-1913
ying	-1914
▁flat	-1915
▁necessary	-1916
sw	-1917
iss	-1918
▁dull	-1919
▁load	-1920
iring	-1921
▁Would	-1922
ivid	-1923
▁confusing	-1924
▁materials	-1925
like	-1926
▁personal	-1927
▁orn	-1928
▁discussing	-1929
▁appro	-1930
ale	-1931
▁syst	-1932
▁jud	-1933
▁Hope	-1934
▁K	-1935
▁U	-1936
▁return	-1937
▁People	-1938
▁key	-1939
▁sand	-1940
▁topics	-1941
tain	-1942
▁badness	-1943
▁Life	-1944
▁offer	-1945
▁cover	-1946
ages	-1947
▁dead	-1948
itions	-1949
▁solid	-1950
▁unpredict	-1951
▁flav	-1952
▁prov	-1953
▁drinks	-1954
▁frustrated	-1955
fl	-1956
▁missing	-1957
▁cruel	-1958
▁flavors	-1959
apt	-1960
▁themselves	-1961
▁equ	-1962
▁store	-1963
▁ce	-1964
ought	-1965
look	-1966
▁surely	-1967
▁thin	-1968
▁match	-1969
▁cheap	-1970
iff	-1971
hys	-1972
leb	-1973
▁rout	-1974
▁They	-1975
ans	-1976
▁grey	-1977
▁responsibil	-1978
▁ber	-1979
▁train	-1980
alse	-1981
▁fool	-1982
▁clos	-1983
▁skills	-1984
chn	-1985
▁ill	-1986
▁grass	-1987
onest	-1988
▁false	-1989
▁hearing	-1990
▁rainy	-1991
▁careless	-1992
▁foolish	-1993
▁land	-1994
▁phys	-1995
▁individ	-1996
▁stressful	-1997
▁ey	-1998
▁fore	-1999
▁black	-2000
▁details	-2001
▁lose	-2002
▁activity	-2003
▁techn	-2004
▁fight	-2005
▁priv	-2006
▁practice	-2007
▁enjoyed	-2008
▁jo	-2009
▁dear	-2010
▁stiff	-2011
▁market	-2012
▁answ	-2013
▁litter	-2014
▁slowly	-2015
▁celeb	-2016
▁positively	-2017
▁brave	-2018
▁shine	-2019
▁lim	-2020
▁travel	-2021
▁walks	-2022
ishing	-2023
▁gross	-2024
▁loose	-2025
▁distract	-2026
▁tree	-2027
▁imagine	-2028
▁white	-2029
▁shines	-2030
▁mach	-2031
▁toy	-2032
uals	-2033
▁farm	-2034
▁painting	-2035
▁sight	-2036
▁stret	-2037
▁bas	-2038
▁serv	-2039
▁wide	-2040
▁nar	-2041
▁solution	-2042
▁unpredictable	-2043
▁set	-2044
▁opin	-2045
par	-2046
▁until	-2047
ens	-2048
▁teach	-2049
▁narrow	-2050
▁effective	-2051
▁sci	-2052
▁physical	-2053
▁paint	-2054
▁complete	-2055
▁meaningful	-2056
▁private	-2057
▁works	-2058
▁individuals	-2059
▁thri	-2060
▁damage	-2061
▁closer	-2062
cle	-2063
um	-2064
▁ice	-2065
ield	-2066
▁incre	-2067
▁burden	-2068
ids	-2069
▁fruits	-2070
▁planning	-2071
▁hang	-2072
ults	-2073
▁fair	-2074
ilar	-2075
▁ca	-2076
ivated	-2077
▁sing	-2078
▁unus	-2079
▁excite	-2080
▁mot	-2081
▁Remember	-2082
anc	-2083
▁dream	-2084
▁company	-2085
▁awake	-2086
▁spea	-2087
▁mil	-2088
▁honest	-2089
▁paper	-2090
▁tastes	-2091
▁leads	-2092
▁similar	-2093
▁violent	-2094
▁burn	-2095
▁seek	-2096
▁skies	-2097
▁excitement	-2098
▁curious	-2099
▁leather	-2100
▁overwhelmed	-2101
ppy	-2102
▁Be	-2103
▁accid	-2104
▁lively	-2105
▁then	-2106
▁concerns	-2107
oot	-2108
▁dirt	-2109
▁unusual	-2110
ift	-2111
▁suggest	-2112
▁breath	-2113
▁powerful	-2114
▁prom	-2115
▁soup	-2116
time	-2117
▁hands	-2118
▁bent	-2119
▁effects	-2120
▁yell	-2121
▁cake	-2122
bject	-2123
▁war	-2124
▁him	-2125
▁To	-2126
ires	-2127
more	-2128
▁anymore	-2129
▁This	-2130
▁tricky	-2131
▁pictures	-2132
atic	-2133
▁field	-2134
▁certainly	-2135
▁picture	-2136
▁fearfulness	-2137
▁fish	-2138
▁pull	-2139
▁spo	-2140
▁loss	-2141
▁twist	-2142
▁relations	-2143
▁lessen	-2144
night	-2145
▁able	-2146
▁breaks	-2147
▁flying	-2148
ial	-2149
▁Being	-2150
▁families	-2151
▁stand	-2152
▁cloudy	-2153
▁prev	-2154
fit	-2155
▁body	-2156
▁press	-2157
▁manag	-2158
▁dislike	-2159
▁prepare	-2160
ances	-2161
▁smart	-2162
▁inse	-2163
▁pen	-2164
▁gent	-2165
▁mid	-2166
cious	-2167
▁shape	-2168
opping	-2169
▁along	-2170
▁pur	-2171
ertile	-2172
▁winds	-2173
▁Me	-2174
dle	-2175
▁yellow	-2176
▁hum	-2177
▁gentle	-2178
▁lessons	-2179
▁teamwork	-2180
▁feeble	-2181
▁spade	-2182
▁prob	-2183
▁fertile	-2184
▁requ	-2185
▁ling	-2186
ca	-2187
▁So	-2188
▁unsure	-2189
▁unhelp	-2190
▁teaching	-2191
▁unha	-2192
▁dou	-2193
▁paths	-2194
▁prepared	-2195
▁darkness	-2196
▁onto	-2197
▁adventures	-2198
▁tonight	-2199
▁creatures	-2200
▁side	-2201
▁unhelpful	-2202
ution	-2203
▁separ	-2204
▁causing	-2205
ison	-2206
▁fat	-2207
▁dishes	-2208
▁middle	-2209
▁bag	-2210
▁business	-2211
▁conscious	-2212
▁wearing	-2213
omatic	-2214
▁hiding	-2215
irt	-2216
▁suc	-2217
▁head	-2218
rant	-2219
▁got	-2220
▁beach	-2221
▁loc	-2222
▁movies	-2223
▁smoke	-2224
▁contin	-2225
▁hanging	-2226
▁follow	-2227
▁acce	-2228
▁troubles	-2229
ho	-2230
▁odd	-2231
▁carefully	-2232
ton	-2233
▁growing	-2234
▁knowing	-2235
▁prog	-2236
▁worth	-2237
rer	-2238
▁openly	-2239
▁automatic	-2240
▁empty	-2241
ease	-2242
▁level	-2243
▁prices	-2244
▁dig	-2245
orry	-2246
lier	-2247
▁weigh	-2248
▁results	-2249
▁elastic	-2250
▁min	-2251
▁push	-2252
▁reco	-2253
▁conditions	-2254
▁boat	-2255
▁clea	-2256
▁wash	-2257
▁frequ	-2258
▁needed	-2259
▁earth	-2260
▁roof	-2261
▁Hopefully	-2262
▁swimming	-2263
▁stud	-2264
▁clearer	-2265
▁science	-2266
▁projects	-2267
▁pleas	-2268
▁shoes	-2269
▁dress	-2270
▁ask	-2271
▁thunder	-2272
ished	-2273
▁compan	-2274
olo	-2275
stood	-2276
▁hair	-2277
▁friendly	-2278
hip	-2279
▁against	-2280
▁dire	-2281
▁advice	-2282
ustom	-2283
▁forever	-2284
▁prevent	-2285
▁unhappy	-2286
▁sick	-2287
▁kids	-2288
▁general	-2289
cape	-2290
▁count	-2291
▁chees	-2292
▁perspect	-2293
erves	-2294
▁spirit	-2295
▁spark	-2296
ewel	-2297
▁city	-2298
▁custom	-2299
▁expectations	-2300
▁table	-2301
▁actually	-2302
▁jewel	-2303
▁separate	-2304
▁knot	-2305
▁reflection	-2306
▁group	-2307
▁fem	-2308
▁stom	-2309
▁provide	-2310
▁reach	-2311
▁par	-2312
▁stomach	-2313
▁lar	-2314
▁fire	-2315
▁equal	-2316
▁belief	-2317
▁pie	-2318
ute	-2319
▁roll	-2320
▁Together	-2321
▁healing	-2322
▁ve	-2323
fic	-2324
▁second	-2325
▁sal	-2326
▁rewarding	-2327
▁blooming	-2328
ential	-2329
▁views	-2330
▁cor	-2331
▁const	-2332
▁impul	-2333
▁kn	-2334
▁wav	-2335
▁misunder	-2336
▁bat	-2337
ources	-2338
▁technolo	-2339
▁seasons	-2340
▁overlook	-2341
▁facts	-2342
▁awful	-2343
▁done	-2344
▁responsibility	-2345
▁test	-2346
▁cheese	-2347
▁female	-2348
▁system	-2349
redi	-2350
▁blow	-2351
▁earlier	-2352
▁metho	-2353
usion	-2354
▁neigh	-2355
ner	-2356
▁collect	-2357
▁trip	-2358
▁dependent	-2359
▁receip	-2360
▁tiring	-2361
icer	-2362
▁send	-2363
gin	-2364
▁nicer	-2365
▁focused	-2366
▁suddenly	-2367
▁understood	-2368
▁nut	-2369
▁recipes	-2370
▁inviting	-2371
▁arm	-2372
▁hate	-2373
▁snee	-2374
▁orange	-2375
▁throw	-2376
▁deeper	-2377
▁pot	-2378
ery	-2379
▁stea	-2380
▁ball	-2381
▁usual	-2382
▁sitting	-2383
bjects	-2384
▁begin	-2385
▁friendships	-2386
▁technology	-2387
▁uncertainty	-2388
▁infl	-2389
▁accept	-2390
▁silly	-2391
▁opinions	-2392
▁shapes	-2393
▁boiling	-2394
▁showing	-2395
▁bene	-2396
▁tricks	-2397
▁ir	-2398
▁influ	-2399
▁attract	-2400
▁oppos	-2401
▁songs	-2402
▁wild	-2403
▁waves	-2404
▁increase	-2405
▁opposite	-2406
▁struggles	-2407
nings	-2408
▁differently	-2409
▁bond	-2410
▁active	-2411
▁liqu	-2412
▁useful	-2413
allel	-2414
▁parallel	-2415
▁escape	-2416
ates	-2417
▁falling	-2418
▁sorry	-2419
▁breathe	-2420
▁produce	-2421
angu	-2422
▁doubt	-2423
▁fixed	-2424
▁alm	-2425
▁fold	-2426
▁sock	-2427
▁hour	-2428
▁shopping	-2429
▁visiting	-2430
▁thoughtful	-2431
▁arri	-2432
▁uplifting	-2433
▁relationships	-2434
▁bread	-2435
▁misunderstand	-2436
▁decor	-2437
▁exist	-2438
▁least	-2439
▁langu	-2440
▁solve	-2441
▁types	-2442
▁purp	-2443
rateful	-2444
▁companies	-2445
▁hide	-2446
▁Keep	-2447
▁almost	-2448
▁probable	-2449
▁ins	-2450
▁recogn	-2451
▁unwel	-2452
▁starts	-2453
fits	-2454
ility	-2455
▁incl	-2456
▁relie	-2457
▁insects	-2458
▁informed	-2459
▁var	-2460
▁drain	-2461
▁confident	-2462
▁tran	-2463
dge	-2464
hood	-2465
▁wood	-2466
▁door	-2467
▁fully	-2468
▁dogs	-2469
▁mag	-2470
etizing	-2471
▁bel	-2472
▁drop	-2473
▁task	-2474
▁animal	-2475
ortun	-2476
▁main	-2477
▁troubling	-2478
▁lifts	-2479
▁adding	-2480
▁Keeping	-2481
earning	-2482
▁tips	-2483
▁mindful	-2484
▁reasons	-2485
▁clar	-2486
▁transp	-2487
▁opportun	-2488
▁chal	-2489
▁wound	-2490
▁grateful	-2491
gs	-2492
▁ext	-2493
▁sear	-2494
▁unmot	-2495
▁suppose	-2496
▁frequent	-2497
▁judge	-2498
▁unwelcoming	-2499
▁pressure	-2500
ried	-2501
▁Learning	-2502
▁effectively	-2503
▁voices	-2504
▁note	-2505
▁mount	-2506
▁calmness	-2507
▁bab	-2508
▁communicate	-2509
▁valid	-2510
▁progress	-2511
▁bree	-2512
▁unmotivated	-2513
▁products	-2514
▁catch	-2515
▁unappetizing	-2516
▁remembering	-2517
▁finish	-2518
▁organized	-2519
▁transport	-2520
▁comple	-2521
▁hollow	-2522
▁his	-2523
▁approach	-2524
oth	-2525
▁bothering	-2526
▁floor	-2527
▁tray	-2528
▁starting	-2529
▁ra	-2530
▁myst	-2531
▁dreams	-2532
▁blan	-2533
▁stretch	-2534
▁reminding	-2535
ament	-2536
vert	-2537
▁distance	-2538
▁accidents	-2539
▁sailing	-2540
▁years	-2541
▁butter	-2542
▁compet	-2543
▁bird	-2544
▁ornament	-2545
▁beliefs	-2546
▁complex	-2547
gu	-2548
▁din	-2549
▁veget	-2550
▁seemed	-2551
▁treats	-2552
▁acts	-2553
▁liquid	-2554
▁clarity	-2555
comes	-2556
▁adapt	-2557
▁parts	-2558
▁impulse	-2559
▁bed	-2560
▁imagination	-2561
▁outcomes	-2562
▁horn	-2563
▁tax	-2564
▁overcome	-2565
▁advert	-2566
▁prose	-2567
▁del	-2568
▁stays	-2569
▁prior	-2570
uth	-2571
▁letter	-2572
▁lin	-2573
▁office	-2574
▁methods	-2575
▁poll	-2576
▁purpose	-2577
ever	-2578
▁ess	-2579
verse	-2580
▁confidence	-2581
▁cup	-2582
▁running	-2583
▁buy	-2584
▁caut	-2585
▁Every	-2586
▁cautious	-2587
▁fil	-2588
▁law	-2589
▁changed	-2590
▁oce	-2591
▁Clean	-2592
▁deserve	-2593
▁evening	-2594
▁Sun	-2595
▁goals	-2596
▁chilly	-2597
▁rice	-2598
▁breeze	-2599
▁designs	-2600
▁negativity	-2601
▁toys	-2602
▁cry	-2603
▁stit	-2604
▁Pl	-2605
tern	-2606
▁band	-2607
entions	-2608
▁bath	-2609
▁shop	-2610
ering	-2611
▁wall	-2612
▁happily	-2613
▁valuable	-2614
▁greatly	-2615
▁success	-2616
▁green	-2617
▁cost	-2618
▁lasting	-2619
▁truth	-2620
eath	-2621
▁flavor	-2622
▁topic	-2623
▁continue	-2624
land	-2625
fortun	-2626
▁comb	-2627
▁map	-2628
▁state	-2629
▁disappoint	-2630
▁crow	-2631
▁receipt	-2632
▁decision	-2633
▁neighbor	-2634
▁ing	-2635
▁essential	-2636
▁sail	-2637
urb	-2638
ables	-2639
▁ingredi	-2640
▁buildings	-2641
no	-2642
▁faces	-2643
▁hopes	-2644
▁challenge	-2645
▁allows	-2646
▁learned	-2647
▁vib	-2648
▁memory	-2649
▁possibil	-2650
▁smoothly	-2651
isf	-2652
atisf	-2653
▁self	-2654
▁belong	-2655
▁Cooking	-2656
▁constant	-2657
▁opportunities	-2658
▁bra	-2659
▁instru	-2660
▁advertise	-2661
▁treas	-2662
▁flight	-2663
▁fit	-2664
▁kinds	-2665
▁lights	-2666
▁wis	-2667
fill	-2668
rib	-2669
▁sug	-2670
▁minute	-2671
▁range	-2672
▁cult	-2673
ude	-2674
▁causes	-2675
▁discussion	-2676
ched	-2677
▁language	-2678
▁becomes	-2679
▁extra	-2680
▁vegetables	-2681
▁safely	-2682
bst	-2683
▁machines	-2684
▁crack	-2685
▁customers	-2686
▁Foc	-2687
▁Fee	-2688
▁clock	-2689
▁Losing	-2690
▁relief	-2691
▁married	-2692
thy	-2693
▁burst	-2694
▁worrying	-2695
▁friendship	-2696
▁emb	-2697
▁box	-2698
▁shut	-2699
▁order	-2700
▁above	-2701
chie	-2702
▁island	-2703
▁hoping	-2704
just	-2705
▁receive	-2706
▁unfortun	-2707
▁steam	-2708
▁propert	-2709
▁stamp	-2710
▁form	-2711
▁simpl	-2712
▁cree	-2713
▁baking	-2714
aged	-2715
▁disturb	-2716
▁Focusing	-2717
▁spreading	-2718
pping	-2719
▁chalk	-2720
▁chances	-2721
oat	-2722
▁human	-2723
▁hor	-2724
overed	-2725
▁Is	-2726
▁chec	-2727
ital	-2728
▁glass	-2729
▁ingredients	-2730
bbies	-2731
▁shirt	-2732
▁promot	-2733
▁positivity	-2734
▁pop	-2735
▁ph	-2736
▁allow	-2737
▁smaller	-2738
▁recent	-2739
▁speak	-2740
▁ens	-2741
▁pump	-2742
otton	-2743
▁leaving	-2744
iety	-2745
▁wool	-2746
▁faster	-2747
▁temp	-2748
▁bite	-2749
▁bran	-2750
▁dangers	-2751
▁discomfort	-2752
▁achie	-2753
▁gardens	-2754
▁tooth	-2755
▁satisf	-2756
▁objects	-2757
▁late	-2758
▁discoveries	-2759
▁argu	-2760
▁hobbies	-2761
essed	-2762
▁milk	-2763
▁harmon	-2764
erms	-2765
▁limit	-2766
▁digestion	-2767
▁country	-2768
▁stocking	-2769
▁berry	-2770
▁impro	-2771
ss	-2772
▁celebrat	-2773
▁char	-2774
▁clim	-2775
▁wine	-2776
cc	-2777
▁organiz	-2778
▁heavier	-2779
▁pet	-2780
▁harbor	-2781
▁gardening	-2782
▁card	-2783
▁eyes	-2784
▁turns	-2785
▁Feeling	-2786
ont	-2787
▁er	-2788
▁went	-2789
▁local	-2790
▁shift	-2791
▁sugar	-2792
ides	-2793
▁See	-2794
resh	-2795
▁job	-2796
ores	-2797
▁warmer	-2798
easing	-2799
▁due	-2800
▁resources	-2801
▁complic	-2802
▁confusion	-2803
▁improvements	-2804
▁commit	-2805
▁influence	-2806
▁save	-2807
▁cream	-2808
▁shade	-2809
▁shelf	-2810
▁pin	-2811
▁gone	-2812
velop	-2813
▁adjust	-2814
▁service	-2815
iving	-2816
▁debt	-2817
ready	-2818
ending	-2819
▁account	-2820
▁egg	-2821
▁rat	-2822
▁gold	-2823
▁signs	-2824
▁struct	-2825
▁Hi	-2826
▁cir	-2827
▁holding	-2828
▁boo	-2829
▁develop	-2830
▁dealing	-2831
ones	-2832
ycle	-2833
▁connecting	-2834
use	-2835
▁pollution	-2836
▁regularly	-2837
▁Sh	-2838
▁unb	-2839
▁profit	-2840
▁round	-2841
▁answers	-2842
▁meetings	-2843
▁ring	-2844
▁humor	-2845
line	-2846
▁pret	-2847
▁spook	-2848
▁dest	-2849
▁kiss	-2850
▁soap	-2851
▁Walking	-2852
▁dish	-2853
▁cotton	-2854
ep	-2855
▁spooky	-2856
▁playful	-2857
▁leaders	-2858
▁inventions	-2859
▁perform	-2860
eable	-2861
▁Sp	-2862
▁berries	-2863
▁ter	-2864
▁coal	-2865
ushing	-2866
▁unpleasing	-2867
▁beautifully	-2868
▁took	-2869
cy	-2870
▁exchange	-2871
▁metal	-2872
▁frighten	-2873
vis	-2874
▁levels	-2875
▁kick	-2876
▁harmony	-2877
▁But	-2878
iction	-2879
▁affecting	-2880
▁possibilities	-2881
▁cra	-2882
▁linger	-2883
▁flag	-2884
▁type	-2885
▁fixing	-2886
▁interest	-2887
▁encour	-2888
▁pattern	-2889
▁deserves	-2890
ences	-2891
▁examp	-2892
▁spong	-2893
▁kinder	-2894
▁courage	-2895
▁valued	-2896
eady	-2897
▁charact	-2898
▁hosp	-2899
▁crowd	-2900
▁talks	-2901
▁routine	-2902
▁wonders	-2903
old	-2904
▁eye	-2905
▁ap	-2906
▁err	-2907
▁germs	-2908
▁lifting	-2909
▁spent	-2910
▁obs	-2911
▁afterward	-2912
eday	-2913
▁impress	-2914
▁someday	-2915
▁shocking	-2916
▁embr	-2917
inking	-2918
ruction	-2919
orable	-2920
▁complicated	-2921
▁styles	-2922
▁achieve	-2923
▁washing	-2924
▁ocean	-2925
afe	-2926
erc	-2927
▁sheep	-2928
▁role	-2929
▁hy	-2930
▁suff	-2931
▁ray	-2932
▁brightens	-2933
▁calmer	-2934
▁vibrant	-2935
▁unfortunate	-2936
▁unst	-2937
althy	-2938
up	-2939
zz	-2940
urance	-2941
▁write	-2942
rible	-2943
▁competition	-2944
▁direction	-2945
▁Fear	-2946
od	-2947
anced	-2948
orter	-2949
▁streets	-2950
▁secrets	-2951
▁occ	-2952
▁stars	-2953
▁months	-2954
cil	-2955
cles	-2956
▁answer	-2957
▁oil	-2958
▁ensure	-2959
▁street	-2960
▁neighborhood	-2961
▁apart	-2962
ably	-2963
estions	-2964
▁journeys	-2965
▁creep	-2966
▁celebrate	-2967
▁soil	-2968
▁unsafe	-2969
▁gathering	-2970
▁meas	-2971
▁exerc	-2972
▁rains	-2973
ists	-2974
▁routines	-2975
▁afterno	-2976
iar	-2977
▁questions	-2978
▁Cleaning	-2979
▁gray	-2980
▁hopefully	-2981
aments	-2982
▁tick	-2983
▁unhealthy	-2984
▁voice	-2985
▁rule	-2986
▁ship	-2987
▁stem	-2988
▁linen	-2989
▁trade	-2990
▁flower	-2991
▁reactions	-2992
ins	-2993
lear	-2994
▁paste	-2995
▁includ	-2996
▁mountain	-2997
oosing	-2998
▁risks	-2999
▁fiction	-3000
▁silver	-3001
rying	-3002
▁uses	-3003
▁worm	-3004
▁subst	-3005
▁ornaments	-3006
▁shiny	-3007
eration	-3008
▁salt	-3009
▁style	-3010
▁sunset	-3011
▁ba	-3012
aced	-3013
▁hurts	-3014
▁thrill	-3015
▁ink	-3016
iny	-3017
▁baby	-3018
outh	-3019
▁mine	-3020
▁polish	-3021
▁maintain	-3022
▁crush	-3023
▁avail	-3024
cial	-3025
ounts	-3026
▁holds	-3027
▁text	-3028
issors	-3029
▁pencil	-3030
▁sneeze	-3031
▁rid	-3032
▁nights	-3033
▁braver	-3034
▁caused	-3035
▁mouth	-3036
▁connects	-3037
▁nicely	-3038
▁enjoyment	-3039
▁cookies	-3040
▁With	-3041
▁crime	-3042
vision	-3043
▁repair	-3044
▁scissors	-3045
▁memorable	-3046
atching	-3047
▁monkey	-3048
▁resting	-3049
▁insurance	-3050
▁board	-3051
▁Wr	-3052
▁tiny	-3053
▁Under	-3054
▁cush	-3055
ocol	-3056
▁hole	-3057
▁Understand	-3058
▁cloth	-3059
▁chaos	-3060
▁manager	-3061
▁pun	-3062
▁meat	-3063
▁ves	-3064
▁magical	-3065
▁chatting	-3066
ousers	-3067
icking	-3068
▁vessel	-3069
▁conflic	-3070
▁station	-3071
▁ups	-3072
▁expressing	-3073
▁repr	-3074
▁relig	-3075
▁Writing	-3076
▁property	-3077
umn	-3078
▁luck	-3079
▁thrive	-3080
▁size	-3081
▁trousers	-3082
▁perspective	-3083
▁bothers	-3084
▁benefits	-3085
eel	-3086
▁sli	-3087
ocolate	-3088
▁available	-3089
▁downs	-3090
▁breaths	-3091
ord	-3092
▁Sm	-3093
▁ket	-3094
▁struggling	-3095
▁death	-3096
▁breathing	-3097
uff	-3098
▁finished	-3099
▁discovering	-3100
gi	-3101
▁prin	-3102
▁front	-3103
▁early	-3104
▁race	-3105
ishment	-3106
▁interests	-3107
▁students	-3108
▁pick	-3109
▁birth	-3110
▁capt	-3111
▁cares	-3112
▁cough	-3113
▁concerning	-3114
ired	-3115
▁mindset	-3116
▁supportive	-3117
▁material	-3118
▁afternoon	-3119
put	-3120
▁nu	-3121
▁ruined	-3122
▁already	-3123
▁Should	-3124
▁drawing	-3125
▁patterns	-3126
opper	-3127
▁welcoming	-3128
▁price	-3129
▁judg	-3130
▁delays	-3131
▁forg	-3132
▁Understanding	-3133
▁chest	-3134
▁Seeking	-3135
▁case	-3136
▁cam	-3137
▁rhy	-3138
mbers	-3139
▁machine	-3140
▁indust	-3141
▁unsteady	-3142
▁blanket	-3143
▁bell	-3144
▁camer	-3145
▁class	-3146
▁rhyth	-3147
▁likely	-3148
▁decorations	-3149
▁large	-3150
▁uplift	-3151
▁harmful	-3152
val	-3153
▁auth	-3154
▁chur	-3155
▁plate	-3156
ctive	-3157
▁amount	-3158
▁silk	-3159
▁turned	-3160
▁goal	-3161
port	-3162
▁disru	-3163
unch	-3164
▁ful	-3165
aving	-3166
▁decide	-3167
▁fing	-3168
▁drawer	-3169
▁fulfill	-3170
▁spots	-3171
vas	-3172
vern	-3173
▁canvas	-3174
▁govern	-3175
▁indoor	-3176
▁kettle	-3177
▁bear	-3178
▁pretty	-3179
▁promote	-3180
▁requires	-3181
▁bought	-3182
▁strengt	-3183
▁cart	-3184
▁frightened	-3185
iled	-3186
▁harsh	-3187
▁within	-3188
aring	-3189
▁Well	-3190
iding	-3191
aughter	-3192
▁Trying	-3193
icing	-3194
▁dinner	-3195
▁terrible	-3196
▁autumn	-3197
▁int	-3198
▁expert	-3199
▁forgot	-3200
▁explain	-3201
▁corn	-3202
▁cared	-3203
▁shame	-3204
itary	-3205
▁arch	-3206
▁belongings	-3207
ctly	-3208
▁word	-3209
▁trend	-3210
▁passes	-3211
▁inten	-3212
hanging	-3213
▁copper	-3214
▁offers	-3215
▁gatherings	-3216
▁attit	-3217
orts	-3218
▁foot	-3219
▁iron	-3220
▁online	-3221
▁church	-3222
▁distant	-3223
▁strengthen	-3224
▁surf	-3225
▁desire	-3226
new	-3227
▁brightness	-3228
▁spill	-3229
▁emotion	-3230
▁government	-3231
▁committ	-3232
▁organization	-3233
▁mark	-3234
▁nation	-3235
▁various	-3236
▁perfectly	-3237
▁respectful	-3238
▁cred	-3239
▁recipe	-3240
▁singing	-3241
▁soo	-3242
▁wants	-3243
▁bottle	-3244
▁cultures	-3245
▁arrive	-3246
▁soothing	-3247
▁collar	-3248
▁steel	-3249
▁disappear	-3250
▁heaviness	-3251
▁supporting	-3252
▁hours	-3253
place	-3254
▁teaches	-3255
▁bonds	-3256
▁neat	-3257
▁turning	-3258
▁seriously	-3259
▁ride	-3260
▁ignored	-3261
▁wheel	-3262
▁credit	-3263
▁clothing	-3264
ffee	-3265
▁Watching	-3266
▁chocolate	-3267
▁gri	-3268
ific	-3269
▁risk	-3270
▁intense	-3271
eak	-3272
▁lying	-3273
▁started	-3274
▁Making	-3275
▁stressed	-3276
▁condition	-3277
▁differences	-3278
▁remain	-3279
ising	-3280
▁line	-3281
▁Eating	-3282
▁flame	-3283
▁motiv	-3284
▁piece	-3285
ency	-3286
▁track	-3287
▁carrying	-3288
▁messages	-3289
ered	-3290
▁military	-3291
▁represent	-3292
eading	-3293
how	-3294
▁smash	-3295
▁camera	-3296
▁industry	-3297
▁generations	-3298
▁lock	-3299
▁unne	-3300
fter	-3301
▁painful	-3302
▁somehow	-3303
▁affected	-3304
▁horse	-3305
▁talked	-3306
▁punishment	-3307
▁whenever	-3308
▁coffee	-3309
▁mel	-3310
ience	-3311
▁checking	-3312
▁gar	-3313
▁Good	-3314
▁pock	-3315
▁boost	-3316
▁rhythm	-3317
▁temper	-3318
▁letting	-3319
lies	-3320
▁throat	-3321
▁rev	-3322
▁pleasures	-3323
▁brought	-3324
▁carri	-3325
▁recognize	-3326
▁Expl	-3327
▁means	-3328
▁Exploring	-3329
▁perspectives	-3330
▁imaginations	-3331
hear	-3332
▁rely	-3333
▁basket	-3334
ody	-3335
▁mud	-3336
▁He	-3337
▁worms	-3338
▁brain	-3339
▁engine	-3340
▁destruction	-3341
▁puzz	-3342
▁Having	-3343
▁fog	-3344
▁wax	-3345
▁alert	-3346
▁slope	-3347
▁environments	-3348
rit	-3349
▁practices	-3350
hearten	-3351
▁dishearten	-3352
▁brass	-3353
▁knife	-3354
▁rising	-3355
▁searching	-3356
▁patient	-3357
▁unim	-3358
▁hol	-3359
▁roads	-3360
▁pleasure	-3361
▁committee	-3362
onnect	-3363
▁enter	-3364
▁socks	-3365
▁sights	-3366
▁eventually	-3367
▁raise	-3368
▁author	-3369
▁unnecessary	-3370
▁cop	-3371
▁unimport	-3372
▁rubb	-3373
▁party	-3374
▁drinking	-3375
▁supplies	-3376
▁worst	-3377
▁speaking	-3378
▁unimportant	-3379
▁preci	-3380
▁precious	-3381
▁Remembering	-3382
▁closely	-3383
▁larger	-3384
▁thread	-3385
aching	-3386
▁costs	-3387
▁owners	-3388
▁lots	-3389
▁doors	-3390
▁reaction	-3391
aurant	-3392
▁Right	-3393
ross	-3394
▁restaurant	-3395
ative	-3396
▁slip	-3397
▁blood	-3398
▁messes	-3399
cast	-3400
▁Your	-3401
▁edge	-3402
▁across	-3403
▁respond	-3404
▁pi	-3405
putting	-3406
▁darker	-3407
ike	-3408
▁ends	-3409
▁disheartening	-3410
▁shoe	-3411
▁considerate	-3412
▁Bright	-3413
▁compared	-3414
▁stitch	-3415
uring	-3416
▁rail	-3417
▁improvement	-3418
▁call	-3419
▁social	-3420
▁sponge	-3421
▁reminded	-3422
▁plane	-3423
▁cycle	-3424
▁caught	-3425
▁Su	-3426
▁cand	-3427
▁wisely	-3428
▁freely	-3429
▁trains	-3430
▁unclear	-3431
▁finds	-3432
▁giving	-3433
▁becoming	-3434
▁tail	-3435
▁brother	-3436
▁manageable	-3437
▁fig	-3438
▁simpler	-3439
▁religion	-3440
▁Fresh	-3441
▁priorit	-3442
▁spoon	-3443
▁fade	-3444
▁fur	-3445
▁anxiety	-3446
▁confused	-3447
▁operation	-3448
▁stage	-3449
▁scar	-3450
▁phot	-3451
ancing	-3452
feren	-3453
▁hammer	-3454
body	-3455
▁amazed	-3456
▁example	-3457
▁popular	-3458
▁businesses	-3459
ric	-3460
▁An	-3461
osity	-3462
▁cushion	-3463
▁worked	-3464
▁Wor	-3465
▁tend	-3466
▁apple	-3467
▁pieces	-3468
▁drive	-3469
▁picnics	-3470
overy	-3471
▁En	-3472
▁buck	-3473
▁chain	-3474
▁workers	-3475
▁leading	-3476
ridge	-3477
▁Using	-3478
▁gently	-3479
mpt	-3480
▁bugs	-3481
▁systems	-3482
▁Sim	-3483
▁brush	-3484
▁rub	-3485
lever	-3486
▁throughout	-3487
▁message	-3488
▁habit	-3489
▁clever	-3490
▁If	-3491
▁mother	-3492
▁values	-3493
▁gift	-3494
arming	-3495
▁warning	-3496
▁Ch	-3497
▁craft	-3498
▁One	-3499
▁tee	-3500
▁preferen	-3501
▁instrument	-3502
yc	-3503
ense	-3504
▁tens	-3505
▁snakes	-3506
▁reality	-3507
▁cork	-3508
▁embrace	-3509
▁page	-3510
▁impacts	-3511
▁division	-3512
fast	-3513
▁brick	-3514
▁disease	-3515
▁amid	-3516
▁teeth	-3517
▁characters	-3518
▁suggestion	-3519
sequ	-3520
▁net	-3521
▁taken	-3522
▁force	-3523
▁seeds	-3524
▁behaviors	-3525
aiting	-3526
▁consequ	-3527
▁curtain	-3528
▁mornings	-3529
▁smiling	-3530
▁engaging	-3531
▁understands	-3532
irl	-3533
▁based	-3534
▁single	-3535
▁signific	-3536
▁hoped	-3537
▁address	-3538
▁knew	-3539
▁received	-3540
▁reminder	-3541
▁Waiting	-3542
▁surv	-3543
▁breaking	-3544
▁disappointment	-3545
▁neck	-3546
▁choosing	-3547
▁hospital	-3548
▁feet	-3549
▁planting	-3550
▁J	-3551
▁select	-3552
▁inspired	-3553
ability	-3554
▁stone	-3555
▁consequences	-3556
▁tong	-3557
▁somewhere	-3558
▁unth	-3559
▁pipe	-3560
adays	-3561
▁watched	-3562
▁No	-3563
▁nowadays	-3564
▁treasures	-3565
cknow	-3566
▁corre	-3567
▁stormy	-3568
▁son	-3569
▁army	-3570
▁organize	-3571
▁structure	-3572
oups	-3573
▁cow	-3574
▁bucket	-3575
▁powder	-3576
▁breakfast	-3577
▁nobody	-3578
▁discovery	-3579
▁chase	-3580
▁Our	-3581
anted	-3582
▁hygi	-3583
ounter	-3584
▁protest	-3585
▁springtime	-3586
bage	-3587
usement	-3588
atus	-3589
▁fork	-3590
ashion	-3591
▁garbage	-3592
▁counts	-3593
▁films	-3594
▁setting	-3595
▁interact	-3596
▁snake	-3597
▁inspiring	-3598
▁preferences	-3599
▁sist	-3600
▁faced	-3601
▁porter	-3602
▁carriage	-3603
ately	-3604
▁badly	-3605
▁poison	-3606
▁lake	-3607
▁familiar	-3608
▁abs	-3609
▁fields	-3610
▁contrib	-3611
▁amusement	-3612
ddy	-3613
▁grain	-3614
▁compar	-3615
▁crowded	-3616
▁authority	-3617
▁fine	-3618
▁hygiene	-3619
▁windows	-3620
▁apples	-3621
▁ent	-3622
hered	-3623
▁wasted	-3624
▁existence	-3625
▁advertisements	-3626
zing	-3627
▁charm	-3628
▁stamps	-3629
▁unwise	-3630
▁improving	-3631
▁basin	-3632
gies	-3633
▁Tea	-3634
▁climb	-3635
▁exactly	-3636
▁including	-3637
▁gun	-3638
▁acting	-3639
▁sister	-3640
▁calmly	-3641
▁Working	-3642
▁wave	-3643
▁specific	-3644
rier	-3645
▁disturbing	-3646
▁tension	-3647
▁helped	-3648
▁poorly	-3649
▁fulfilling	-3650
uild	-3651
▁boot	-3652
▁lunch	-3653
▁Reading	-3654
▁girl	-3655
aratus	-3656
▁apparatus	-3657
ging	-3658
▁muddy	-3659
▁owner	-3660
▁covered	-3661
▁fishing	-3662
▁outlook	-3663
▁approval	-3664
▁prioritize	-3665
▁trad	-3666
▁prison	-3667
▁beginnings	-3668
▁regard	-3669
▁neglect	-3670
▁treated	-3671
▁cows	-3672
▁frame	-3673
▁reasonable	-3674
back	-3675
▁came	-3676
▁significant	-3677
▁atte	-3678
▁appearance	-3679
▁development	-3680
acking	-3681
▁payment	-3682
▁reaching	-3683
ient	-3684
▁seat	-3685
▁Mus	-3686
▁fab	-3687
▁experienc	-3688
▁toe	-3689
▁jobs	-3690
▁circle	-3691
▁cars	-3692
usting	-3693
▁Playing	-3694
▁quieter	-3695
▁seeking	-3696
▁nav	-3697
▁knows	-3698
▁Music	-3699
▁navig	-3700
▁plays	-3701
▁print	-3702
▁number	-3703
ycling	-3704
▁stores	-3705
▁button	-3706
▁damaged	-3707
▁north	-3708
▁advertisement	-3709
otic	-3710
istant	-3711
▁upd	-3712
▁serve	-3713
▁ticket	-3714
▁motivated	-3715
▁relaxation	-3716
▁fant	-3717
▁grip	-3718
▁name	-3719
▁wom	-3720
▁Simple	-3721
▁curiosity	-3722
▁accident	-3723
ats	-3724
orses	-3725
▁stops	-3726
▁enjoys	-3727
▁thrilling	-3728
flection	-3729
▁silence	-3730
way	-3731
▁entertain	-3732
▁chaotic	-3733
▁reminders	-3734
▁feed	-3735
▁skirt	-3736
▁bud	-3737
▁artists	-3738
▁daughter	-3739
▁dance	-3740
▁loves	-3741
▁budget	-3742
▁secretary	-3743
▁mysterious	-3744
▁Help	-3745
▁laws	-3746
▁Com	-3747
▁picking	-3748
▁tra	-3749
▁burdens	-3750
▁realized	-3751
▁shock	-3752
kept	-3753
ication	-3754
▁sandw	-3755
▁branches	-3756
▁smoother	-3757
▁suggestions	-3758
▁acid	-3759
▁outcome	-3760
▁bake	-3761
orrow	-3762
▁detail	-3763
▁Helping	-3764
▁treasure	-3765
▁irrit	-3766
▁skill	-3767
▁appealing	-3768
apped	-3769
▁distractions	-3770
▁Creat	-3771
▁fashion	-3772
▁resolve	-3773
▁branch	-3774
▁partic	-3775
▁blowing	-3776
▁nuts	-3777
▁wire	-3778
▁tales	-3779
▁puzzling	-3780
▁measure	-3781
▁violence	-3782
▁Happ	-3783
▁Kind	-3784
getic	-3785
▁gain	-3786
▁vide	-3787
▁tongue	-3788
▁endless	-3789
iqu	-3790
▁cord	-3791
▁search	-3792
▁impressive	-3793
▁mistake	-3794
▁acknow	-3795
▁interru	-3796
▁Sunshine	-3797
▁lingers	-3798
▁members	-3799
ird	-3800
ground	-3801
▁balanced	-3802
▁fantastic	-3803
▁selection	-3804
▁lur	-3805
▁arise	-3806
▁honesty	-3807
▁grows	-3808
▁attack	-3809
▁glove	-3810
▁expans	-3811
bby	-3812
eries	-3813
ither	-3814
▁knee	-3815
▁rich	-3816
▁moves	-3817
▁stuff	-3818
▁concl	-3819
▁falls	-3820
▁arrives	-3821
eaking	-3822
▁limits	-3823
hedu	-3824
▁corner	-3825
▁pocket	-3826
▁pushing	-3827
▁boring	-3828
▁angrier	-3829
▁servant	-3830
▁laughing	-3831
▁base	-3832
▁hobby	-3833
▁taxes	-3834
▁pres	-3835
▁factors	-3836
▁opening	-3837
▁leg	-3838
oking	-3839
▁folding	-3840
▁covering	-3841
▁expansion	-3842
▁wit	-3843
▁colder	-3844
▁Small	-3845
▁loudly	-3846
▁cutting	-3847
▁putting	-3848
ief	-3849
▁unit	-3850
▁cooler	-3851
▁exercise	-3852
life	-3853
▁eer	-3854
▁appreciating	-3855
oses	-3856
▁slipp	-3857
▁nerves	-3858
▁disrupt	-3859
▁repairs	-3860
▁spoiled	-3861
▁observ	-3862
▁Reflection	-3863
▁ruining	-3864
▁won	-3865
▁reli	-3866
ashing	-3867
▁eerie	-3868
▁navigate	-3869
▁fighting	-3870
▁wanting	-3871
iest	-3872
▁mass	-3873
▁broke	-3874
▁Kindness	-3875
▁occas	-3876
▁stones	-3877
▁doct	-3878
hedule	-3879
har	-3880
▁nose	-3881
▁distrib	-3882
▁Speaking	-3883
▁alarming	-3884
▁noticing	-3885
▁upcoming	-3886
▁sour	-3887
▁enhan	-3888
▁weird	-3889
▁groups	-3890
▁needle	-3891
▁emotional	-3892
▁respected	-3893
▁encouraging	-3894
▁fol	-3895
▁Time	-3896
▁opinion	-3897
▁Ass	-3898
▁trends	-3899
▁Assistant	-3900
▁shel	-3901
▁behave	-3902
▁unthought	-3903
▁protecting	-3904
unning	-3905
▁folks	-3906
▁Can	-3907
assion	-3908
▁chief	-3909
istening	-3910
▁texture	-3911
▁recycling	-3912
ply	-3913
▁sell	-3914
▁lurking	-3915
▁fail	-3916
▁errors	-3917
▁simply	-3918
essert	-3919
▁heavily	-3920
▁When	-3921
▁conflict	-3922
▁position	-3923
▁Listening	-3924
cher	-3925
▁cats	-3926
▁clut	-3927
▁Sunny	-3928
▁passing	-3929
▁trapped	-3930
▁stretching	-3931
▁witness	-3932
▁visitors	-3933
▁invention	-3934
▁comparison	-3935
▁eggs	-3936
▁brains	-3937
▁Oh	-3938
▁ec	-3939
▁hook	-3940
▁kept	-3941
▁scen	-3942
▁weak	-3943
▁unwind	-3944
aren	-3945
▁walls	-3946
▁universe	-3947
▁images	-3948
▁refreshed	-3949
ites	-3950
yond	-3951
ination	-3952
▁beyond	-3953
▁ending	-3954
▁schedule	-3955
▁practicing	-3956
▁rechar	-3957
▁exha	-3958
▁dessert	-3959
og	-3960
▁fills	-3961
▁strongly	-3962
▁satisfying	-3963
▁plastic	-3964
▁distribution	-3965
▁coop	-3966
▁relation	-3967
▁notes	-3968
▁quietly	-3969
▁succ	-3970
▁flies	-3971
▁horses	-3972
▁techniqu	-3973
▁attraction	-3974
▁unthoughtful	-3975
▁motion	-3976
owers	-3977
▁said	-3978
▁rod	-3979
▁greater	-3980
▁arguments	-3981
▁finan	-3982
▁visited	-3983
▁compassion	-3984
ctions	-3985
▁holid	-3986
▁energetic	-3987
▁forgotten	-3988
▁bags	-3989
▁ability	-3990
▁sources	-3991
▁ignoring	-3992
▁improves	-3993
▁peacefully	-3994
▁Star	-3995
▁whip	-3996
erving	-3997
▁predict	-3998
▁discovered	-3999
ls	-4000
▁juice	-4001
▁scale	-4002
▁kindly	-4003
▁suffering	-4004
▁After	-4005
▁basic	-4006
▁meant	-4007
▁dem	-4008
▁Pain	-4009
▁didn	-4010
▁reflects	-4011
▁productive	-4012
itive	-4013
▁further	-4014
▁burning	-4015
▁rolling	-4016
▁blade	-4017
▁spilled	-4018
▁substances	-4019
▁magic	-4020
▁trans	-4021
▁scents	-4022
▁annoyed	-4023
▁addition	-4024
▁supported	-4025
ducing	-4026
▁release	-4027
ib	-4028
▁survive	-4029
▁Of	-4030
▁succeed	-4031
▁touching	-4032
aries	-4033
▁outing	-4034
ible	-4035
▁forms	-4036
▁buying	-4037
▁encounter	-4038
▁risky	-4039
▁anyway	-4040
▁considering	-4041
▁Sw	-4042
ners	-4043
▁copy	-4044
ouraging	-4045
▁financial	-4046
ied	-4047
▁verse	-4048
▁recharge	-4049
▁damp	-4050
edom	-4051
▁surface	-4052
▁missed	-4053
▁Starting	-4054
▁traveling	-4055
▁Creating	-4056
▁Thinking	-4057
▁Sn	-4058
▁cru	-4059
▁scenes	-4060
▁capture	-4061
▁argument	-4062
▁theory	-4063
▁content	-4064
▁attitude	-4065
sibly	-4066
▁blank	-4067
▁negatively	-4068
ret	-4069
enery	-4070
gging	-4071
▁fell	-4072
▁record	-4073
▁flash	-4074
▁updates	-4075
▁freedom	-4076
▁muscles	-4077
▁pulling	-4078
ights	-4079
▁blows	-4080
▁substance	-4081
▁crafts	-4082
▁teacher	-4083
▁agreement	-4084
▁Everyone	-4085
▁slippery	-4086
ided	-4087
▁fad	-4088
lines	-4089
▁allowing	-4090
▁reliable	-4091
▁od	-4092
▁sex	-4093
▁curve	-4094
▁played	-4095
▁difficulties	-4096
iches	-4097
▁effic	-4098
▁ord	-4099
▁Even	-4100
▁displ	-4101
▁climate	-4102
▁depends	-4103
free	-4104
▁opens	-4105
▁concert	-4106
▁hurtful	-4107
▁Str	-4108
▁feedback	-4109
▁honestly	-4110
▁techniques	-4111
fy	-4112
hanges	-4113
▁replace	-4114
▁demand	-4115
▁hurting	-4116
▁collection	-4117
unting	-4118
▁error	-4119
▁resil	-4120
pts	-4121
umb	-4122
▁complain	-4123
▁unappreci	-4124
▁encourages	-4125
▁wasting	-4126
▁rise	-4127
inary	-4128
▁stri	-4129
▁helpless	-4130
▁sometime	-4131
▁Facing	-4132
▁fairness	-4133
▁sleeping	-4134
▁bone	-4135
▁strate	-4136
▁tendency	-4137
▁sandwiches	-4138
▁figure	-4139
▁shadow	-4140
▁meanings	-4141
▁Each	-4142
▁suffer	-4143
▁letters	-4144
▁V	-4145
▁woman	-4146
▁rivers	-4147
▁sadder	-4148
▁movement	-4149
▁representative	-4150
▁deg	-4151
▁brake	-4152
ber	-4153
▁amidst	-4154
▁forecast	-4155
▁exhausting	-4156
▁itself	-4157
▁photos	-4158
▁managing	-4159
▁overl	-4160
uilding	-4161
▁babies	-4162
▁energ	-4163
▁occur	-4164
ram	-4165
▁rate	-4166
▁darkest	-4167
▁stitching	-4168
wing	-4169
▁untr	-4170
▁attempt	-4171
▁drivers	-4172
▁hig	-4173
▁engaged	-4174
▁unappreciated	-4175
mer	-4176
▁Thanks	-4177
▁mystery	-4178
▁creepy	-4179
▁spills	-4180
▁Anim	-4181
▁tasted	-4182
▁training	-4183
▁structures	-4184
▁movements	-4185
▁inj	-4186
▁visits	-4187
▁spreads	-4188
▁flashlight	-4189
oll	-4190
▁traffic	-4191
▁lands	-4192
▁performance	-4193
▁ass	-4194
ushed	-4195
▁rare	-4196
▁benefit	-4197
▁services	-4198
▁Op	-4199
olding	-4200
▁finger	-4201
▁jewels	-4202
▁scenery	-4203
▁schools	-4204
ocked	-4205
▁paren	-4206
▁pile	-4207
▁Enjoy	-4208
▁nails	-4209
▁unease	-4210
▁variety	-4211
▁conclusion	-4212
▁roots	-4213
▁digging	-4214
▁correctly	-4215
▁ago	-4216
▁Changing	-4217
▁absolutely	-4218
othered	-4219
lex	-4220
ops	-4221
nger	-4222
▁Painting	-4223
▁transform	-4224
▁unbothered	-4225
▁item	-4226
orting	-4227
▁pasta	-4228
▁either	-4229
▁sports	-4230
▁craw	-4231
▁entire	-4232
▁mountains	-4233
▁Ear	-4234
▁seed	-4235
▁scene	-4236
▁paying	-4237
▁nail	-4238
▁speed	-4239
▁fingers	-4240
ia	-4241
cri	-4242
erim	-4243
▁enhance	-4244
▁recover	-4245
▁priority	-4246
▁Not	-4247
▁unre	-4248
▁stains	-4249
▁Animals	-4250
▁cute	-4251
▁unexc	-4252
pending	-4253
▁higher	-4254
▁frustrations	-4255
tles	-4256
▁bar	-4257
▁Does	-4258
▁proud	-4259
▁papers	-4260
▁include	-4261
▁temperature	-4262
mbol	-4263
▁Mem	-4264
▁added	-4265
▁positives	-4266
▁tot	-4267
▁ruins	-4268
▁spoil	-4269
▁disappointed	-4270
▁leaf	-4271
▁ben	-4272
▁disres	-4273
▁wildlife	-4274
▁adjustment	-4275
▁organizing	-4276
oles	-4277
▁Over	-4278
▁jack	-4279
▁tense	-4280
▁Spending	-4281
▁bothersome	-4282
▁lip	-4283
itals	-4284
▁Often	-4285
▁hides	-4286
▁thumb	-4287
▁symbol	-4288
▁cleaned	-4289
▁crucial	-4290
▁anywhere	-4291
af	-4292
▁huge	-4293
▁Memories	-4294
▁handling	-4295
▁overlooked	-4296
ompl	-4297
ession	-4298
▁instruments	-4299
▁statement	-4300
▁inju	-4301
▁weeks	-4302
▁humans	-4303
▁experim	-4304
▁finally	-4305
▁surrounds	-4306
▁unpr	-4307
▁reducing	-4308
▁Friend	-4309
▁littering	-4310
▁film	-4311
▁rude	-4312
▁reflective	-4313
icy	-4314
▁shops	-4315
▁invite	-4316
▁senses	-4317
▁ele	-4318
▁request	-4319
▁depending	-4320
▁celebrations	-4321
▁Earth	-4322
▁chill	-4323
▁uninter	-4324
▁customer	-4325
▁z	-4326
▁dining	-4327
▁farmers	-4328
▁refresh	-4329
mun	-4330
ensive	-4331
▁vital	-4332
ossible	-4333
▁smoking	-4334
▁Fl	-4335
ted	-4336
ping	-4337
▁piling	-4338
▁childhood	-4339
▁disag	-4340
▁wings	-4341
▁Teaching	-4342
▁afterwards	-4343
▁impossible	-4344
▁frag	-4345
▁smallest	-4346
▁Wow	-4347
▁media	-4348
▁needing	-4349
▁weekends	-4350
▁gen	-4351
▁unaw	-4352
▁ordinary	-4353
▁fest	-4354
▁conflicts	-4355
▁countries	-4356
▁ric	-4357
issing	-4358
▁ble	-4359
▁Rain	-4360
oating	-4361
▁richer	-4362
▁remove	-4363
▁Che	-4364
▁twists	-4365
▁caf	-4366
▁yard	-4367
ilities	-4368
▁riding	-4369
mon	-4370
▁Supp	-4371
▁preparing	-4372
▁roles	-4373
▁checked	-4374
▁closed	-4375
▁repeat	-4376
▁regarding	-4377
▁delay	-4378
▁increas	-4379
▁loneliness	-4380
▁surprisingly	-4381
▁wouldn	-4382
▁blankets	-4383
▁soot	-4384
▁threat	-4385
▁boats	-4386
▁guard	-4387
▁disagree	-4388
action	-4389
▁trips	-4390
▁tasting	-4391
▁disrespect	-4392
▁farms	-4393
▁floating	-4394
▁motivation	-4395
▁directly	-4396
ival	-4397
iking	-4398
▁bound	-4399
▁older	-4400
▁treatment	-4401
▁adm	-4402
▁alright	-4403
▁monkeys	-4404
organ	-4405
▁planes	-4406
▁rewards	-4407
▁Building	-4408
▁Un	-4409
▁chair	-4410
▁For	-4411
▁Anger	-4412
▁jumping	-4413
▁Plan	-4414
ges	-4415
anges	-4416
pting	-4417
▁tang	-4418
▁dropp	-4419
▁saving	-4420
▁glo	-4421
dding	-4422
▁fridge	-4423
▁program	-4424
▁totally	-4425
▁slipping	-4426
▁subjects	-4427
▁concerned	-4428
▁boundaries	-4429
iced	-4430
▁builds	-4431
▁soothe	-4432
▁response	-4433
▁abilities	-4434
▁hospitals	-4435
▁collecting	-4436
udes	-4437
earing	-4438
▁woods	-4439
▁Commun	-4440
▁opened	-4441
▁require	-4442
▁rubbish	-4443
▁Overall	-4444
▁Planning	-4445
▁hit	-4446
▁rush	-4447
▁favorites	-4448
▁Looking	-4449
▁judgment	-4450
amil	-4451
▁dre	-4452
▁degree	-4453
▁fabric	-4454
▁lines	-4455
sidered	-4456
▁measures	-4457
▁textures	-4458
▁carelessly	-4459
▁block	-4460
▁unbal	-4461
▁worlds	-4462
▁potential	-4463
ptions	-4464
▁Great	-4465
▁fewer	-4466
▁likes	-4467
▁nerve	-4468
▁salad	-4469
▁wondering	-4470
▁accidentally	-4471
man	-4472
▁pack	-4473
▁scre	-4474
▁empat	-4475
▁saying	-4476
▁clutter	-4477
▁fa	-4478
▁shout	-4479
▁surrounded	-4480
lish	-4481
▁emer	-4482
▁appears	-4483
mend	-4484
▁rats	-4485
▁jokes	-4486
▁doctor	-4487
▁forest	-4488
▁promises	-4489
▁attitudes	-4490
▁continues	-4491
▁considered	-4492
▁appreciation	-4493
▁uninteresting	-4494
▁Ar	-4495
ball	-4496
▁feat	-4497
▁dropped	-4498
▁stunning	-4499
ilt	-4500
▁bike	-4501
▁crafting	-4502
▁video	-4503
▁themes	-4504
▁chats	-4505
mind	-4506
▁raising	-4507
▁tightly	-4508
▁unbalanced	-4509
drat	-4510
ossed	-4511
▁teachers	-4512
▁interactions	-4513
▁root	-4514
▁cities	-4515
▁unaware	-4516
▁strategies	-4517
▁appreciated	-4518
▁access	-4519
▁Changes	-4520
▁overcoming	-4521
▁scare	-4522
organized	-4523
rics	-4524
oration	-4525
▁insect	-4526
▁dressing	-4527
▁probably	-4528
rep	-4529
▁daunting	-4530
tered	-4531
▁unity	-4532
▁limited	-4533
▁Cl	-4534
▁ded	-4535
▁nowhere	-4536
▁gh	-4537
▁pair	-4538
▁ghost	-4539
▁tests	-4540
▁dreary	-4541
▁observation	-4542
ped	-4543
▁male	-4544
▁rust	-4545
▁told	-4546
▁flags	-4547
▁covers	-4548
▁hydrat	-4549
ommend	-4550
▁review	-4551
▁shorter	-4552
▁recommend	-4553
▁tun	-4554
▁flex	-4555
▁incredi	-4556
▁celebrating	-4557
▁satisfaction	-4558
▁lif	-4559
▁report	-4560
▁listens	-4561
▁parents	-4562
▁circles	-4563
▁experts	-4564
▁fragile	-4565
▁togetherness	-4566
▁sens	-4567
izes	-4568
▁bins	-4569
▁stylish	-4570
▁character	-4571
▁expensive	-4572
▁imagining	-4573
uffy	-4574
▁sort	-4575
▁mixing	-4576
▁showed	-4577
▁Enjoying	-4578
oing	-4579
storm	-4580
fession	-4581
▁goodby	-4582
▁instin	-4583
▁embracing	-4584
▁moder	-4585
▁descri	-4586
▁empathy	-4587
▁examples	-4588
▁gifts	-4589
▁aspect	-4590
▁muscle	-4591
▁irritating	-4592
dows	-4593
utions	-4594
▁unpro	-4595
▁opt	-4596
atures	-4597
▁unwanted	-4598
▁temperatures	-4599
term	-4600
▁ban	-4601
▁liked	-4602
▁Baking	-4603
▁scient	-4604
▁united	-4605
umbs	-4606
etting	-4607
▁joining	-4608
▁surfaces	-4609
orthy	-4610
amiliar	-4611
▁anytime	-4612
▁standing	-4613
▁testing	-4614
▁throwing	-4615
assed	-4616
iture	-4617
▁furn	-4618
▁vary	-4619
repared	-4620
▁wounds	-4621
▁furniture	-4622
▁restaurants	-4623
▁gest	-4624
▁sadly	-4625
▁locked	-4626
▁display	-4627
▁café	-4628
berries	-4629
▁neighb	-4630
▁reports	-4631
▁motivate	-4632
▁knots	-4633
▁decided	-4634
▁mysteries	-4635
▁sneezing	-4636
▁unfamiliar	-4637
▁Are	-4638
▁grab	-4639
▁steep	-4640
▁fluffy	-4641
▁strang	-4642
▁culture	-4643
▁avoiding	-4644
▁hydrated	-4645
urity	-4646
▁outfit	-4647
▁prepar	-4648
▁artwork	-4649
utes	-4650
▁two	-4651
erate	-4652
▁lets	-4653
▁image	-4654
▁lasts	-4655
▁Now	-4656
▁unn	-4657
▁nois	-4658
▁climbing	-4659
▁constantly	-4660
▁celebration	-4661
▁lower	-4662
iration	-4663
▁bridge	-4664
▁loving	-4665
sha	-4666
ndry	-4667
▁flights	-4668
▁product	-4669
▁bes	-4670
▁phone	-4671
▁racing	-4672
▁reveal	-4673
▁oranges	-4674
▁neighborhoods	-4675
▁significantly	-4676
▁noisy	-4677
▁unexciting	-4678
ards	-4679
nding	-4680
ubb	-4681
▁Dr	-4682
flies	-4683
▁sponges	-4684
olves	-4685
▁Educ	-4686
▁moved	-4687
▁granted	-4688
▁mention	-4689
▁describe	-4690
▁dev	-4691
▁ships	-4692
together	-4693
▁flowing	-4694
▁receipts	-4695
▁aff	-4696
atives	-4697
▁regain	-4698
▁birthday	-4699
▁particip	-4700
▁neighbors	-4701
▁unprepared	-4702
▁reflections	-4703
ocks	-4704
▁Gard	-4705
▁beings	-4706
▁laundry	-4707
▁quicker	-4708
umm	-4709
imming	-4710
▁points	-4711
▁hopeless	-4712
▁aim	-4713
▁artist	-4714
▁jacket	-4715
▁returns	-4716
▁function	-4717
▁Happiness	-4718
▁cooked	-4719
▁hiking	-4720
▁frequently	-4721
▁experiencing	-4722
▁Art	-4723
▁vers	-4724
▁combin	-4725
onnected	-4726
▁tangled	-4727
▁ended	-4728
▁equally	-4729
▁payments	-4730
▁security	-4731
▁management	-4732
itude	-4733
▁sore	-4734
▁wires	-4735
▁afford	-4736
▁wonderfully	-4737
▁rays	-4738
▁finances	-4739
▁contribute	-4740
▁wake	-4741
▁desires	-4742
▁insights	-4743
room	-4744
fulfill	-4745
▁programs	-4746
▁Im	-4747
irts	-4748
vest	-4749
▁lay	-4750
idance	-4751
▁freshness	-4752
▁unfulfill	-4753
▁acknowledge	-4754
▁Shadows	-4755
▁features	-4756
▁guidance	-4757
ummy	-4758
▁float	-4759
▁attend	-4760
▁chores	-4761
▁Imag	-4762
▁tries	-4763
▁candles	-4764
▁Choosing	-4765
eases	-4766
▁diverse	-4767
▁shaking	-4768
▁playtime	-4769
▁experienced	-4770
▁maintaining	-4771
▁hous	-4772
▁sides	-4773
▁goodbye	-4774
▁energized	-4775
▁boots	-4776
▁unfold	-4777
▁illness	-4778
br	-4779
▁windy	-4780
ots	-4781
ands	-4782
▁emerg	-4783
▁blocking	-4784
▁draining	-4785
▁sticking	-4786
▁dim	-4787
▁squ	-4788
enses	-4789
▁Dogs	-4790
▁odors	-4791
▁surrounding	-4792
bts	-4793
▁cards	-4794
▁shore	-4795
▁sneez	-4796
▁toast	-4797
▁readers	-4798
▁weighing	-4799
▁rot	-4800
▁laug	-4801
▁Drinking	-4802
ipes	-4803
▁stir	-4804
▁waters	-4805
▁occasions	-4806
urt	-4807
▁hung	-4808
▁disast	-4809
▁laughed	-4810
▁Food	-4811
▁rides	-4812
▁engage	-4813
▁Holding	-4814
▁solving	-4815
▁crawling	-4816
▁frustrates	-4817
ental	-4818
▁study	-4819
▁traditions	-4820
aps	-4821
▁Friends	-4822
▁bravery	-4823
▁highlight	-4824
izz	-4825
▁pipes	-4826
▁Flowers	-4827
▁selfish	-4828
▁dedication	-4829
▁brightening	-4830
ump	-4831
▁Caring	-4832
▁unlike	-4833
▁manners	-4834
▁travels	-4835
▁sway	-4836
▁aspects	-4837
▁incredible	-4838
▁attractions	-4839
▁inspiration	-4840
hile	-4841
▁ballo	-4842
▁unnot	-4843
▁Swimming	-4844
▁altogether	-4845
iven	-4846
▁drag	-4847
▁method	-4848
▁steaming	-4849
▁stomachs	-4850
▁polishing	-4851
▁Supporting	-4852
oving	-4853
▁vast	-4854
ressing	-4855
▁softer	-4856
▁following	-4857
▁experiment	-4858
▁protection	-4859
▁dism	-4860
▁gloves	-4861
▁passion	-4862
cu	-4863
▁says	-4864
▁heads	-4865
▁names	-4866
▁lies	-4867
▁dancing	-4868
▁oversha	-4869
▁diseases	-4870
▁drawings	-4871
▁stepping	-4872
▁exercises	-4873
oint	-4874
▁gave	-4875
▁isol	-4876
▁expenses	-4877
▁resilience	-4878
▁butterflies	-4879
▁responsibly	-4880
▁Warm	-4881
▁fost	-4882
▁tack	-4883
▁hungry	-4884
▁mouths	-4885
gest	-4886
tains	-4887
▁deli	-4888
▁Trust	-4889
▁effici	-4890
▁Missing	-4891
cha	-4892
yst	-4893
▁At	-4894
▁aud	-4895
▁tied	-4896
▁raining	-4897
▁rubbing	-4898
▁shocked	-4899
▁unending	-4900
▁playground	-4901
▁properties	-4902
rap	-4903
▁worn	-4904
▁Open	-4905
▁dram	-4906
▁herbs	-4907
ratitude	-4908
▁Communication	-4909
elling	-4910
▁height	-4911
▁observe	-4912
ored	-4913
ushes	-4914
▁rushing	-4915
▁unable	-4916
▁curtains	-4917
▁influences	-4918
▁hats	-4919
▁modern	-4920
▁thrown	-4921
unk	-4922
▁legs	-4923
▁lemon	-4924
▁yummy	-4925
▁houses	-4926
▁outfits	-4927
▁profits	-4928
▁thankful	-4929
▁sav	-4930
▁holiday	-4931
▁numbers	-4932
▁happiest	-4933
▁wasteful	-4934
▁pointless	-4935
▁fres	-4936
▁pests	-4937
ced	-4938
▁wore	-4939
▁pause	-4940
▁beneath	-4941
▁corners	-4942
▁scarier	-4943
▁included	-4944
cing	-4945
heart	-4946
alities	-4947
▁supposed	-4948
▁sweetness	-4949
▁unnoticed	-4950
ledging	-4951
▁louder	-4952
▁oceans	-4953
▁sticks	-4954
▁stock	-4955
▁clears	-4956
▁simplest	-4957
orms	-4958
▁bones	-4959
▁grace	-4960
▁harms	-4961
▁hurry	-4962
▁scent	-4963
▁Spring	-4964
▁recovery	-4965
reed	-4966
▁wing	-4967
▁bands	-4968
hearted	-4969
▁spices	-4970
▁shoulders	-4971
▁organizations	-4972
▁tele	-4973
▁shelves	-4974
▁impulses	-4975
▁distracting	-4976
▁instincts	-4977
eng	-4978
izza	-4979
eating	-4980
▁option	-4981
▁source	-4982
▁tiredness	-4983
▁pool	-4984
olving	-4985
ales	-4986
dges	-4987
▁Enc	-4988
▁straw	-4989
▁scares	-4990
▁wander	-4991
▁filling	-4992
▁carefree	-4993
▁flexible	-4994
▁cooperate	-4995
▁unchanging	-4996
▁Pract	-4997
▁sched	-4998
▁unite	-4999
▁Wishing	-5000
▁accompl	-5001
aff	-5002
▁ur	-5003
▁tells	-5004
▁lesson	-5005
▁construction	-5006
▁gall	-5007
▁pudd	-5008
▁swee	-5009
▁cords	-5010
▁flood	-5011
▁warms	-5012
▁reviews	-5013
▁shelter	-5014
▁creations	-5015
imy	-5016
▁cakes	-5017
▁longing	-5018
▁Laughter	-5019
▁qualities	-5020
stain	-5021
▁languages	-5022
▁scientists	-5023
nov	-5024
acked	-5025
▁forgetting	-5026
▁Pre	-5027
▁holes	-5028
▁softly	-5029
▁sustain	-5030
fessional	-5031
▁concent	-5032
care	-5033
▁television	-5034
▁disrespectful	-5035
▁Cats	-5036
▁crops	-5037
▁purcha	-5038
▁vessels	-5039
▁provides	-5040
▁directions	-5041
▁interested	-5042
ached	-5043
▁walked	-5044
▁ticking	-5045
▁willing	-5046
▁injuries	-5047
▁thoughtless	-5048
dow	-5049
▁nutri	-5050
▁Letting	-5051
▁balancing	-5052
▁expecting	-5053
▁overshadow	-5054
▁built	-5055
▁inspires	-5056
cap	-5057
▁obst	-5058
▁Happy	-5059
▁stable	-5060
▁talent	-5061
▁workplace	-5062
▁unl	-5063
▁genu	-5064
ically	-5065
▁deals	-5066
▁Education	-5067
▁And	-5068
▁crit	-5069
anting	-5070
▁perce	-5071
▁obstac	-5072
▁remains	-5073
▁disrupts	-5074
▁capturing	-5075
ror	-5076
▁empt	-5077
▁Clear	-5078
▁yours	-5079
▁discouraging	-5080
ify	-5081
▁age	-5082
aight	-5083
ductive	-5084
▁resear	-5085
▁fabrics	-5086
▁straight	-5087
▁schedules	-5088
▁carelessness	-5089
▁Q	-5090
cking	-5091
paring	-5092
▁marks	-5093
▁Seeing	-5094
▁patients	-5095
▁sandcast	-5096
▁brightened	-5097
▁presentation	-5098
▁unproductive	-5099
eeds	-5100
▁Their	-5101
▁engines	-5102
▁occasion	-5103
▁nutrients	-5104
co	-5105
▁junk	-5106
▁writ	-5107
▁Worry	-5108
▁pages	-5109
▁biggest	-5110
▁treating	-5111
▁sensitive	-5112
▁respecting	-5113
▁recognition	-5114
▁Sad	-5115
▁blend	-5116
▁passed	-5117
▁slower	-5118
▁unfairly	-5119
▁Ag	-5120
▁hill	-5121
▁exists	-5122
▁creeping	-5123
▁standards	-5124
▁devices	-5125
▁involves	-5126
▁Encouraging	-5127
gue	-5128
▁She	-5129
▁bri	-5130
▁cou	-5131
▁fading	-5132
▁Strange	-5133
▁viewers	-5134
▁Snee	-5135
▁staff	-5136
▁wiser	-5137
▁Today	-5138
▁assist	-5139
▁Stories	-5140
▁sending	-5141
▁providing	-5142
arr	-5143
▁conven	-5144
▁figures	-5145
▁respons	-5146
▁obstacles	-5147
▁tails	-5148
▁admire	-5149
▁pockets	-5150
▁tickets	-5151
▁satisfied	-5152
▁adjustments	-5153
▁unorganized	-5154
▁Res	-5155
▁races	-5156
▁plates	-5157
▁players	-5158
▁consideration	-5159
▁Isn	-5160
▁stubb	-5161
▁endings	-5162
▁presence	-5163
▁encouragement	-5164
▁diet	-5165
▁pizza	-5166
▁arching	-5167
▁ringing	-5168
▁holidays	-5169
▁protests	-5170
▁preparation	-5171
▁mad	-5172
aches	-5173
ining	-5174
ulner	-5175
▁diff	-5176
▁flames	-5177
▁outings	-5178
▁studies	-5179
▁Bir	-5180
▁sees	-5181
▁Connect	-5182
▁annoyances	-5183
▁recognized	-5184
▁Al	-5185
rees	-5186
oping	-5187
osyst	-5188
▁charge	-5189
▁vulner	-5190
▁besides	-5191
▁ecosyst	-5192
▁audience	-5193
▁habitats	-5194
▁impression	-5195
▁disagreements	-5196
▁innov	-5197
▁fearsome	-5198
▁whatever	-5199
▁neglected	-5200
▁Practicing	-5201
leep	-5202
▁Tom	-5203
ashed	-5204
tings	-5205
▁seats	-5206
▁relieve	-5207
▁Checking	-5208
▁lightness	-5209
▁stability	-5210
▁dep	-5211
▁hug	-5212
▁strive	-5213
▁bottles	-5214
▁correct	-5215
▁Sneezing	-5216
▁entirely	-5217
▁Gardening	-5218
▁hass	-5219
▁toug	-5220
▁baked	-5221
▁given	-5222
▁rotten	-5223
▁background	-5224
uses	-5225
▁toes	-5226
▁sweeter	-5227
▁distracted	-5228
hic	-5229
ounds	-5230
▁docu	-5231
▁pond	-5232
▁runs	-5233
▁fires	-5234
quality	-5235
▁settle	-5236
▁unheard	-5237
▁accepting	-5238
▁responses	-5239
mat	-5240
▁cushions	-5241
▁Preparing	-5242
▁gratitude	-5243
▁strengths	-5244
▁relationship	-5245
ants	-5246
▁chef	-5247
▁fans	-5248
▁wond	-5249
worthy	-5250
▁Comfort	-5251
▁evenings	-5252
▁listened	-5253
cogn	-5254
▁aren	-5255
▁sold	-5256
▁dusty	-5257
▁adults	-5258
▁hassle	-5259
▁settings	-5260
▁cooperation	-5261
gly	-5262
▁pulls	-5263
▁rates	-5264
▁crowds	-5265
▁doubts	-5266
▁warnings	-5267
▁emptiness	-5268
▁spl	-5269
▁Most	-5270
▁bump	-5271
▁guns	-5272
▁Strong	-5273
▁guests	-5274
▁invest	-5275
▁tackle	-5276
▁created	-5277
▁Saf	-5278
▁bow	-5279
▁joke	-5280
▁kites	-5281
ifferen	-5282
▁minutes	-5283
▁Dis	-5284
▁buds	-5285
▁desk	-5286
▁pour	-5287
▁Safety	-5288
▁bricks	-5289
▁sorrow	-5290
▁painted	-5291
▁gestures	-5292
▁combinations	-5293
▁Or	-5294
esty	-5295
▁humid	-5296
▁comforts	-5297
▁wondered	-5298
▁interruptions	-5299
▁reb	-5300
ipping	-5301
▁Agreed	-5302
▁restore	-5303
▁companions	-5304
▁strawberries	-5305
▁Very	-5306
▁pace	-5307
ipment	-5308
▁aller	-5309
▁stain	-5310
▁annoys	-5311
▁creature	-5312
▁offering	-5313
▁successful	-5314
ume	-5315
▁buzz	-5316
▁grad	-5317
▁hardest	-5318
▁equipment	-5319
▁lightning	-5320
▁recognizing	-5321
▁contributions	-5322
▁Qu	-5323
ties	-5324
engers	-5325
▁fights	-5326
▁regret	-5327
▁achievements	-5328
▁dur	-5329
▁beaches	-5330
▁Tomorrow	-5331
▁mentioned	-5332
▁promoting	-5333
▁efficiently	-5334
▁zoo	-5335
▁drives	-5336
▁appoint	-5337
▁kitchens	-5338
▁nighttime	-5339
▁particular	-5340
▁passengers	-5341
onf	-5342
▁hon	-5343
▁chose	-5344
▁forming	-5345
▁lifesty	-5346
▁supports	-5347
▁concentrate	-5348
▁glow	-5349
▁kite	-5350
▁ugly	-5351
▁shall	-5352
ibility	-5353
▁begins	-5354
▁repeated	-5355
riendly	-5356
▁Sounds	-5357
▁videos	-5358
▁educate	-5359
▁genuine	-5360
▁increasing	-5361
▁uncertainties	-5362
isp	-5363
resp	-5364
▁fence	-5365
▁flour	-5366
▁judged	-5367
▁contrast	-5368
ued	-5369
▁sau	-5370
▁cuts	-5371
▁Child	-5372
▁slimy	-5373
▁vibes	-5374
▁altern	-5375
▁telling	-5376
▁aside	-5377
▁goods	-5378
▁grains	-5379
▁thumbs	-5380
▁unready	-5381
▁restless	-5382
▁Imagining	-5383
▁cherished	-5384
▁mold	-5385
reaking	-5386
▁burned	-5387
▁scream	-5388
▁sewing	-5389
▁weighs	-5390
▁entertaining	-5391
▁bowl	-5392
▁thinks	-5393
▁markets	-5394
▁pressing	-5395
▁repeating	-5396
▁decoration	-5397
oes	-5398
▁nurt	-5399
▁delayed	-5400
▁needles	-5401
▁comments	-5402
▁finishing	-5403
▁comfortably	-5404
▁entertainment	-5405
ulp	-5406
minded	-5407
▁rooms	-5408
▁sculp	-5409
▁weeds	-5410
▁Certain	-5411
▁Getting	-5412
▁consist	-5413
▁touches	-5414
▁regardless	-5415
pped	-5416
ixing	-5417
overs	-5418
▁coping	-5419
▁thanks	-5420
▁fresher	-5421
ees	-5422
▁keys	-5423
▁grown	-5424
▁intim	-5425
▁sizes	-5426
▁fairly	-5427
▁sculpt	-5428
▁contain	-5429
▁grossed	-5430
▁studying	-5431
▁statements	-5432
▁van	-5433
▁muse	-5434
▁peri	-5435
▁bills	-5436
▁became	-5437
▁Worrying	-5438
▁catching	-5439
▁imagined	-5440
▁unkindness	-5441
mbre	-5442
ters	-5443
▁Bad	-5444
▁oper	-5445
mbrell	-5446
riving	-5447
▁creeps	-5448
▁stands	-5449
▁disgusts	-5450
ords	-5451
▁New	-5452
▁adap	-5453
▁alike	-5454
▁moist	-5455
▁hardly	-5456
▁remark	-5457
▁shirts	-5458
▁kicking	-5459
▁returning	-5460
▁vulnerable	-5461
▁possibility	-5462
▁unfulfilled	-5463
▁object	-5464
▁Respect	-5465
▁instant	-5466
▁sickness	-5467
▁observing	-5468
▁combination	-5469
▁misl	-5470
▁swea	-5471
▁elect	-5472
▁matches	-5473
▁fulfilled	-5474
▁Bl	-5475
onom	-5476
▁tear	-5477
▁vibe	-5478
▁pride	-5479
▁sneak	-5480
flowers	-5481
▁research	-5482
kempt	-5483
▁result	-5484
▁tradition	-5485
▁twice	-5486
▁crunch	-5487
▁umbrell	-5488
▁unkempt	-5489
▁lemonade	-5490
▁Connecting	-5491
asty	-5492
ised	-5493
▁Dark	-5494
▁boun	-5495
▁sink	-5496
▁bubb	-5497
▁libr	-5498
▁repl	-5499
ficial	-5500
icycle	-5501
▁cance	-5502
▁learns	-5503
▁sunsets	-5504
▁wag	-5505
▁ripp	-5506
itting	-5507
▁comed	-5508
▁crying	-5509
▁econom	-5510
▁explan	-5511
ifferent	-5512
▁bicycle	-5513
▁attached	-5514
▁chalking	-5515
▁processes	-5516
▁religions	-5517
▁intentions	-5518
▁Birds	-5519
▁candy	-5520
▁depth	-5521
▁slips	-5522
▁guiding	-5523
▁puddles	-5524
▁pots	-5525
▁puts	-5526
▁Bet	-5527
▁tie	-5528
▁coins	-5529
▁Weather	-5530
▁designed	-5531
▁festival	-5532
▁deadlines	-5533
▁lingering	-5534
ggy	-5535
▁By	-5536
▁Imp	-5537
icity	-5538
kward	-5539
▁boss	-5540
▁banan	-5541
▁Better	-5542
▁Moving	-5543
▁laughs	-5544
▁supply	-5545
▁desserts	-5546
▁unkindly	-5547
▁affordable	-5548
ky	-5549
▁On	-5550
▁tim	-5551
▁evoke	-5552
▁plain	-5553
▁gallery	-5554
▁uncover	-5555
▁Children	-5556
isons	-5557
think	-5558
▁nasty	-5559
▁bushes	-5560
▁commitment	-5561
▁competitions	-5562
▁spin	-5563
▁Storms	-5564
▁shares	-5565
▁Driving	-5566
▁catches	-5567
▁farming	-5568
lls	-5569
▁Ad	-5570
▁tempor	-5571
▁awkward	-5572
▁efficient	-5573
nal	-5574
▁Old	-5575
▁Rea	-5576
▁tunes	-5577
▁prints	-5578
▁relate	-5579
▁rights	-5580
▁screen	-5581
▁warmly	-5582
▁acceptable	-5583
▁performances	-5584
ups	-5585
uri	-5586
▁Cold	-5587
▁maps	-5588
▁balloon	-5589
▁landscape	-5590
▁paintings	-5591
▁exploration	-5592
▁sandcastles	-5593
▁threatening	-5594
▁unfortunately	-5595
eness	-5596
▁juicy	-5597
▁parties	-5598
▁distraction	-5599
ater	-5600
▁pens	-5601
▁argue	-5602
▁Adding	-5603
▁collab	-5604
▁mostly	-5605
▁wheels	-5606
▁promise	-5607
▁interrupt	-5608
for	-5609
▁chore	-5610
▁Hoping	-5611
▁bearable	-5612
▁survival	-5613
▁disasters	-5614
▁unfairness	-5615
unt	-5616
▁dut	-5617
▁Just	-5618
▁tire	-5619
▁cracks	-5620
▁realizing	-5621
▁operations	-5622
▁observations	-5623
asy	-5624
▁Pos	-5625
▁shi	-5626
apping	-5627
▁trigg	-5628
tenance	-5629
▁differ	-5630
▁resist	-5631
▁Resting	-5632
▁touched	-5633
▁moonlight	-5634
▁Pr	-5635
sweet	-5636
▁bend	-5637
▁fits	-5638
▁shades	-5639
▁versat	-5640
▁handled	-5641
▁melting	-5642
▁records	-5643
▁believing	-5644
▁resilient	-5645
▁approaches	-5646
▁beneficial	-5647
azy	-5648
ident	-5649
▁cups	-5650
idating	-5651
▁mental	-5652
▁Hearing	-5653
▁lacking	-5654
▁liquids	-5655
▁pleasing	-5656
▁stopping	-5657
▁leftovers	-5658
▁priorities	-5659
▁bittersweet	-5660
ron	-5661
▁div	-5662
▁Sweet	-5663
▁sever	-5664
▁wishes	-5665
▁doctors	-5666
▁pumping	-5667
▁increases	-5668
▁opportunity	-5669
ograp	-5670
▁cour	-5671
▁wasn	-5672
▁stems	-5673
▁attemp	-5674
▁creamy	-5675
▁embarr	-5676
▁ghosts	-5677
▁picked	-5678
▁truths	-5679
▁budgets	-5680
▁collars	-5681
▁journal	-5682
▁locking	-5683
▁recycle	-5684
▁savings	-5685
▁intimidating	-5686
▁fav	-5687
▁urg	-5688
▁bare	-5689
▁pill	-5690
▁drops	-5691
▁final	-5692
▁library	-5693
▁several	-5694
▁Different	-5695
▁temporary	-5696
▁acknowledging	-5697
bo	-5698
▁la	-5699
▁spr	-5700
istic	-5701
asting	-5702
▁eager	-5703
▁groc	-5704
▁melt	-5705
▁inner	-5706
telling	-5707
▁throws	-5708
▁advance	-5709
▁maintenance	-5710
ov	-5711
▁dent	-5712
▁wished	-5713
▁bravely	-5714
▁harming	-5715
▁deciding	-5716
▁guessing	-5717
▁lifestyle	-5718
▁uncomfortably	-5719
erm	-5720
ased	-5721
itiz	-5722
▁Mist	-5723
▁horns	-5724
▁vehic	-5725
▁battle	-5726
▁wishing	-5727
▁requests	-5728
▁unknowns	-5729
cies	-5730
▁bites	-5731
▁grime	-5732
▁talents	-5733
▁theories	-5734
▁allergies	-5735
medi	-5736
▁men	-5737
▁lips	-5738
▁medic	-5739
▁favour	-5740
▁Washing	-5741
▁football	-5742
▁purposes	-5743
▁agreements	-5744
▁remarkable	-5745
▁Vis	-5746
eared	-5747
▁fails	-5748
ringing	-5749
▁immedi	-5750
▁rebuild	-5751
▁stopped	-5752
▁Mistakes	-5753
ils	-5754
wal	-5755
▁arms	-5756
▁dial	-5757
encies	-5758
▁noses	-5759
▁Running	-5760
▁counter	-5761
▁serving	-5762
▁alternatives	-5763
▁storytelling	-5764
wor	-5765
▁Pol	-5766
ppings	-5767
▁accur	-5768
▁disli	-5769
▁blooms	-5770
▁dialog	-5771
▁winning	-5772
▁professional	-5773
ucky	-5774
▁tow	-5775
▁sake	-5776
▁candle	-5777
▁shakes	-5778
▁bananas	-5779
▁subject	-5780
▁younger	-5781
▁twisting	-5782
▁favourite	-5783
▁practical	-5784
days	-5785
▁drama	-5786
▁unfor	-5787
▁buzzing	-5788
▁carries	-5789
▁dismiss	-5790
▁horrible	-5791
▁toppings	-5792
▁travelers	-5793
▁sustainable	-5794
dy	-5795
rich	-5796
▁bits	-5797
▁fades	-5798
▁unfun	-5799
▁untie	-5800
▁arguing	-5801
▁untrust	-5802
▁attempts	-5803
▁reconnect	-5804
▁versatile	-5805
▁cherishing	-5806
▁convenience	-5807
tens	-5808
manag	-5809
▁Such	-5810
valued	-5811
▁extre	-5812
▁honey	-5813
▁rainb	-5814
▁viewp	-5815
▁amusing	-5816
▁classes	-5817
▁unmanag	-5818
▁whether	-5819
▁stockings	-5820
▁unmanageable	-5821
reg	-5822
idents	-5823
ightly	-5824
▁lucky	-5825
▁misleading	-5826
ank	-5827
noc	-5828
▁Col	-5829
▁Fun	-5830
alling	-5831
▁innoc	-5832
▁stayed	-5833
▁steady	-5834
▁screens	-5835
▁Bringing	-5836
▁unbright	-5837
elf	-5838
ades	-5839
▁bold	-5840
▁Sleep	-5841
▁stroll	-5842
▁untang	-5843
▁futures	-5844
▁dropping	-5845
▁symbolize	-5846
▁creatively	-5847
▁exercising	-5848
fying	-5849
▁fond	-5850
afraid	-5851
▁rings	-5852
▁Visiting	-5853
▁umbrella	-5854
▁quietness	-5855
cks	-5856
men	-5857
while	-5858
▁chick	-5859
▁injury	-5860
▁museum	-5861
▁strict	-5862
▁Wanting	-5863
▁compare	-5864
▁joyfully	-5865
▁unafraid	-5866
▁worthwhile	-5867
▁Us	-5868
▁awa	-5869
▁bees	-5870
▁excuses	-5871
▁harmless	-5872
▁unsettle	-5873
▁photograp	-5874
gia	-5875
bled	-5876
iers	-5877
▁sof	-5878
algia	-5879
▁camp	-5880
▁Still	-5881
▁diets	-5882
▁fixes	-5883
▁flows	-5884
▁monst	-5885
▁squir	-5886
▁sooner	-5887
▁dentist	-5888
enty	-5889
wise	-5890
akers	-5891
▁Join	-5892
▁brown	-5893
▁sauce	-5894
▁Joining	-5895
▁sneezed	-5896
▁tougher	-5897
▁trusted	-5898
▁improved	-5899
acy	-5900
what	-5901
▁odor	-5902
▁renew	-5903
▁rolls	-5904
▁teams	-5905
▁brands	-5906
▁metals	-5907
▁Opening	-5908
▁classic	-5909
▁cleanup	-5910
▁Dressing	-5911
▁politics	-5912
▁somewhat	-5913
▁Lit	-5914
▁Reg	-5915
idence	-5916
rition	-5917
▁grand	-5918
▁disreg	-5919
▁invade	-5920
▁cruelty	-5921
▁pencils	-5922
sit	-5923
ases	-5924
going	-5925
table	-5926
▁ages	-5927
▁chefs	-5928
▁citiz	-5929
▁flick	-5930
▁hesit	-5931
▁sales	-5932
▁enrich	-5933
retching	-5934
▁pouring	-5935
▁humidity	-5936
▁messiness	-5937
▁environmental	-5938
▁enric	-5939
▁rocks	-5940
▁heated	-5941
▁Wearing	-5942
▁bubbles	-5943
▁howling	-5944
▁managed	-5945
▁cluttered	-5946
▁disregard	-5947
▁Stretching	-5948
cept	-5949
▁Eng	-5950
▁Heal	-5951
▁eleg	-5952
▁mend	-5953
onesty	-5954
▁burnt	-5955
▁rises	-5956
▁twisted	-5957
▁grounded	-5958
▁unrecogn	-5959
▁nutrition	-5960
▁wellbeing	-5961
▁untrustworthy	-5962
aim	-5963
gic	-5964
corn	-5965
▁nost	-5966
▁biting	-5967
▁crossed	-5968
▁harshly	-5969
▁leaking	-5970
▁citizens	-5971
▁dialogue	-5972
▁appointment	-5973
asp	-5974
book	-5975
▁Sci	-5976
▁Will	-5977
urally	-5978
▁burns	-5979
▁roofs	-5980
▁vivid	-5981
▁forces	-5982
▁sweets	-5983
▁waking	-5984
▁unforget	-5985
▁emergency	-5986
che	-5987
respon	-5988
▁served	-5989
▁amounts	-5990
▁species	-5991
▁symbols	-5992
▁trigger	-5993
▁fleeting	-5994
▁shouting	-5995
▁gradually	-5996
▁protected	-5997
▁sunflowers	-5998
▁unforgettable	-5999
▁pa	-6000
apid	-6001
ians	-6002
made	-6003
▁vol	-6004
icies	-6005
orage	-6006
▁Both	-6007
▁woke	-6008
▁yucky	-6009
▁judging	-6010
▁storage	-6011
▁cracking	-6012
▁isolated	-6013
▁policies	-6014
▁participate	-6015
ete	-6016
▁intri	-6017
▁rapid	-6018
▁tomat	-6019
mindful	-6020
▁borrow	-6021
▁ongoing	-6022
▁rethink	-6023
▁troubled	-6024
▁naturally	-6025
▁unmindful	-6026
▁disconnected	-6027
ged	-6028
beat	-6029
▁exh	-6030
eeded	-6031
▁Stress	-6032
▁sidewal	-6033
▁medicine	-6034
▁annoyance	-6035
▁production	-6036
▁appearances	-6037
ancy	-6038
▁orig	-6039
warming	-6040
▁Snakes	-6041
▁foster	-6042
▁sparks	-6043
friendly	-6044
▁sipping	-6045
▁smashed	-6046
▁delivery	-6047
▁appearing	-6048
▁emergencies	-6049
▁personality	-6050
▁heartwarming	-6051
▁pan	-6052
▁chew	-6053
▁puppy	-6054
▁determ	-6055
▁shifts	-6056
▁stretches	-6057
ods	-6058
ours	-6059
tons	-6060
▁untidy	-6061
▁crushed	-6062
▁hitting	-6063
▁oneself	-6064
▁periods	-6065
▁unsettled	-6066
▁Soft	-6067
▁bored	-6068
▁exhib	-6069
▁women	-6070
▁Wouldn	-6071
earching	-6072
▁Sadness	-6073
▁Thunder	-6074
▁closing	-6075
▁popcorn	-6076
▁skilled	-6077
▁threads	-6078
▁dislikes	-6079
▁decorating	-6080
▁strengthens	-6081
azing	-6082
oints	-6083
ormal	-6084
▁Pets	-6085
ecting	-6086
▁Going	-6087
▁asked	-6088
▁claim	-6089
▁heights	-6090
▁wounded	-6091
▁attending	-6092
▁otherwise	-6093
▁expression	-6094
▁viewpoints	-6095
▁experimenting	-6096
▁cy	-6097
▁mir	-6098
odies	-6099
owing	-6100
▁cafe	-6101
▁disp	-6102
▁tale	-6103
▁appet	-6104
▁reass	-6105
▁users	-6106
▁buttons	-6107
▁caution	-6108
▁chasing	-6109
▁economy	-6110
▁intrigu	-6111
▁discussed	-6112
▁ech	-6113
▁chem	-6114
▁hits	-6115
▁stat	-6116
▁jumpy	-6117
▁cycles	-6118
▁arrived	-6119
▁crunchy	-6120
▁decorate	-6121
▁melodies	-6122
lly	-6123
vable	-6124
▁Sure	-6125
▁circ	-6126
▁ours	-6127
utting	-6128
▁decre	-6129
▁latest	-6130
▁influen	-6131
▁writers	-6132
▁entertained	-6133
▁instructions	-6134
▁rock	-6135
▁ducks	-6136
▁salty	-6137
▁ripple	-6138
▁setback	-6139
▁sneezes	-6140
▁snowmen	-6141
▁lifeless	-6142
▁possibly	-6143
▁successes	-6144
▁As	-6145
ships	-6146
▁beat	-6147
▁input	-6148
▁melts	-6149
▁fallen	-6150
▁rushed	-6151
▁attacks	-6152
▁fitness	-6153
▁startle	-6154
▁workout	-6155
▁Positive	-6156
▁innocent	-6157
▁tempting	-6158
▁misunderstood	-6159
ums	-6160
▁sets	-6161
▁towns	-6162
▁warming	-6163
▁appetite	-6164
▁watering	-6165
▁receiving	-6166
▁repeatedly	-6167
▁arr	-6168
issed	-6169
▁curves	-6170
▁shaped	-6171
▁unlock	-6172
▁worksp	-6173
▁jewelry	-6174
▁soaking	-6175
▁intriguing	-6176
▁pe	-6177
opes	-6178
arter	-6179
aught	-6180
lying	-6181
▁Sail	-6182
atural	-6183
▁horror	-6184
▁overhead	-6185
▁Certainly	-6186
▁disappears	-6187
oyal	-6188
capes	-6189
▁wider	-6190
▁manner	-6191
▁pollut	-6192
▁related	-6193
▁shaping	-6194
▁swaying	-6195
▁bothered	-6196
▁lighting	-6197
▁collective	-6198
▁unrecognized	-6199
icn	-6200
▁Picn	-6201
▁susp	-6202
▁artic	-6203
▁comfy	-6204
▁howls	-6205
▁males	-6206
▁please	-6207
▁durable	-6208
▁squirre	-6209
▁happenings	-6210
reak	-6211
▁Cha	-6212
inter	-6213
urous	-6214
▁half	-6215
▁sale	-6216
▁drift	-6217
omplete	-6218
ritious	-6219
▁expand	-6220
▁greasy	-6221
▁upbeat	-6222
▁Sunlight	-6223
▁daylight	-6224
▁carriages	-6225
▁nutritious	-6226
let	-6227
oad	-6228
▁icy	-6229
▁coin	-6230
▁post	-6231
making	-6232
▁Rainy	-6233
▁widely	-6234
▁freeing	-6235
▁weights	-6236
▁flourish	-6237
▁productivity	-6238
uch	-6239
ened	-6240
▁Rel	-6241
▁ate	-6242
▁Disc	-6243
▁Loud	-6244
▁hike	-6245
▁evolve	-6246
▁lining	-6247
▁Picnics	-6248
▁however	-6249
▁matching	-6250
▁unvalued	-6251
▁guidelines	-6252
▁bug	-6253
riage	-6254
▁stur	-6255
▁fancy	-6256
▁leaks	-6257
▁loyal	-6258
▁chicken	-6259
▁musical	-6260
▁persist	-6261
▁presents	-6262
▁Searching	-6263
▁collaboration	-6264
roy	-6265
utter	-6266
▁Ouch	-6267
▁labe	-6268
▁cooks	-6269
▁smelly	-6270
▁untrue	-6271
▁bridges	-6272
▁confuse	-6273
▁destroy	-6274
▁islands	-6275
▁smelled	-6276
▁sandwich	-6277
▁smoothie	-6278
▁adventurous	-6279
ront	-6280
▁def	-6281
▁boil	-6282
▁ears	-6283
▁await	-6284
▁empow	-6285
▁tires	-6286
▁comput	-6287
pressing	-6288
▁cracked	-6289
▁selling	-6290
▁classroom	-6291
▁cast	-6292
▁sent	-6293
agious	-6294
▁calms	-6295
▁spicy	-6296
▁stuffy	-6297
▁washed	-6298
▁pinning	-6299
▁wedding	-6300
▁complaints	-6301
▁contagious	-6302
dom	-6303
belie	-6304
imate	-6305
▁Coll	-6306
▁Trees	-6307
▁While	-6308
▁Really	-6309
▁called	-6310
▁guides	-6311
▁raises	-6312
▁Regular	-6313
▁sparkle	-6314
▁goodness	-6315
▁soldiers	-6316
▁individual	-6317
▁Dra	-6318
▁below	-6319
versity	-6320
▁pushed	-6321
▁Drawing	-6322
▁Setting	-6323
▁deliver	-6324
▁extreme	-6325
▁greatest	-6326
▁beginning	-6327
▁tightness	-6328
▁gracefully	-6329
ugg	-6330
uts	-6331
ikes	-6332
isies	-6333
▁redu	-6334
▁crumbs	-6335
▁Folding	-6336
▁sounded	-6337
▁unfolds	-6338
▁ensuring	-6339
▁thriving	-6340
▁experiments	-6341
cre	-6342
onven	-6343
▁coat	-6344
▁utens	-6345
forward	-6346
onsider	-6347
▁smarter	-6348
▁lightens	-6349
▁slightly	-6350
▁Polishing	-6351
▁burdensome	-6352
lit	-6353
▁fu	-6354
▁Ice	-6355
▁bin	-6356
▁yog	-6357
riers	-6358
▁Quiet	-6359
▁attic	-6360
▁soups	-6361
▁spoons	-6362
▁adapting	-6363
▁untangle	-6364
▁educating	-6365
▁ecosystems	-6366
hand	-6367
▁gap	-6368
etime	-6369
lings	-6370
▁Team	-6371
▁mode	-6372
▁duties	-6373
▁linked	-6374
▁cheaper	-6375
▁contact	-6376
▁pretend	-6377
▁tastier	-6378
▁valuing	-6379
▁barriers	-6380
▁inconven	-6381
▁leftover	-6382
▁simplicity	-6383
▁particularly	-6384
iders	-6385
▁tears	-6386
▁salads	-6387
▁sturdy	-6388
▁consume	-6389
▁Engaging	-6390
▁moisture	-6391
▁groceries	-6392
▁purchases	-6393
▁straightforward	-6394
llows	-6395
▁calls	-6396
▁carts	-6397
▁lacks	-6398
▁Asking	-6399
▁losses	-6400
▁tracks	-6401
▁Sailing	-6402
▁follows	-6403
▁elements	-6404
▁lifetime	-6405
▁shutting	-6406
▁smashing	-6407
▁suspense	-6408
▁uplifted	-6409
▁brainstorm	-6410
▁destination	-6411
▁Emot	-6412
▁jumps	-6413
▁layer	-6414
▁shopp	-6415
▁bounce	-6416
▁heartb	-6417
▁timing	-6418
▁resolut	-6419
▁wagging	-6420
▁confront	-6421
▁crashing	-6422
▁flooding	-6423
▁stillness	-6424
▁sculptures	-6425
▁traditional	-6426
lph	-6427
arks	-6428
ship	-6429
▁Red	-6430
▁Nost	-6431
▁offe	-6432
seless	-6433
▁grasp	-6434
▁actual	-6435
▁harmed	-6436
▁festive	-6437
▁polished	-6438
▁shoppers	-6439
▁stubborn	-6440
▁utensils	-6441
▁judgments	-6442
responsible	-6443
▁incomplete	-6444
els	-6445
itch	-6446
▁Fam	-6447
▁Sil	-6448
▁bak	-6449
▁deb	-6450
▁haun	-6451
▁mult	-6452
▁Light	-6453
▁appli	-6454
▁blame	-6455
▁haven	-6456
▁known	-6457
▁three	-6458
▁Family	-6459
▁drains	-6460
▁Meeting	-6461
▁wherever	-6462
▁addressing	-6463
▁treatments	-6464
▁visibility	-6465
▁representatives	-6466
▁gi	-6467
▁vac	-6468
▁vit	-6469
uming	-6470
▁Only	-6471
umping	-6472
▁clash	-6473
▁piles	-6474
▁Fixing	-6475
▁refuse	-6476
▁authors	-6477
▁dressed	-6478
▁fitting	-6479
▁useless	-6480
▁burdened	-6481
▁instantly	-6482
▁workspace	-6483
▁emotionally	-6484
▁advancements	-6485
▁tag	-6486
board	-6487
icals	-6488
▁exce	-6489
▁reme	-6490
atable	-6491
▁baths	-6492
▁hills	-6493
▁tying	-6494
▁advant	-6495
▁course	-6496
▁layers	-6497
▁signals	-6498
▁Teamwork	-6499
▁spilling	-6500
▁pressures	-6501
▁leadership	-6502
▁approaching	-6503
▁Gl	-6504
ples	-6505
▁dra	-6506
▁tab	-6507
▁tip	-6508
▁gems	-6509
▁plot	-6510
▁collea	-6511
▁consum	-6512
▁deepen	-6513
▁neatly	-6514
▁Perfect	-6515
▁chemicals	-6516
▁documents	-6517
▁wandering	-6518
▁exchanging	-6519
▁immediately	-6520
aked	-6521
irer	-6522
miss	-6523
▁paid	-6524
▁brakes	-6525
▁fairer	-6526
▁openness	-6527
▁strangers	-6528
▁highlights	-6529
▁cheerfulness	-6530
zes	-6531
hest	-6532
phan	-6533
▁ant	-6534
▁Grow	-6535
▁scat	-6536
esents	-6537
▁necks	-6538
▁vitam	-6539
essions	-6540
ructive	-6541
▁phones	-6542
▁bedtime	-6543
▁Emotions	-6544
▁smoothies	-6545
▁achievement	-6546
▁comparisons	-6547
fly	-6548
loy	-6549
inal	-6550
algic	-6551
▁ripe	-6552
▁lakes	-6553
▁route	-6554
▁stove	-6555
▁theme	-6556
▁employ	-6557
▁mapping	-6558
▁electric	-6559
▁purchase	-6560
▁diversity	-6561
▁strangely	-6562
▁vegetable	-6563
▁bitterness	-6564
▁represents	-6565
▁countryside	-6566
▁Joy	-6567
▁Sur	-6568
works	-6569
▁Dust	-6570
▁Lone	-6571
▁menu	-6572
▁Truly	-6573
▁absor	-6574
▁backy	-6575
▁edges	-6576
▁intern	-6577
▁statue	-6578
▁Healthy	-6579
▁Honesty	-6580
▁However	-6581
▁Science	-6582
▁Sitting	-6583
▁demands	-6584
▁disaster	-6585
▁marriage	-6586
▁shifting	-6587
▁Ac	-6588
▁gad	-6589
▁mas	-6590
▁fake	-6591
▁grill	-6592
▁ident	-6593
▁checks	-6594
▁cowork	-6595
▁gadget	-6596
▁brushes	-6597
▁gesture	-6598
▁normally	-6599
▁unstable	-6600
▁Loneliness	-6601
▁landscapes	-6602
▁developments	-6603
▁suit	-6604
▁corks	-6605
▁preca	-6606
fulness	-6607
itching	-6608
overing	-6609
▁internet	-6610
▁exchanges	-6611
▁forecasts	-6612
▁acceptance	-6613
ane	-6614
▁Mon	-6615
▁Cher	-6616
▁held	-6617
▁amaze	-6618
▁boxes	-6619
▁moldy	-6620
ounting	-6621
ulations	-6622
▁document	-6623
▁snowball	-6624
▁unneeded	-6625
▁interrupts	-6626
▁distressing	-6627
chan	-6628
▁cen	-6629
▁sup	-6630
▁acted	-6631
▁locks	-6632
▁snowy	-6633
▁invent	-6634
▁mechan	-6635
▁polite	-6636
▁offered	-6637
▁dreaming	-6638
▁location	-6639
▁vehicles	-6640
▁Cherishing	-6641
▁consistent	-6642
▁irritation	-6643
cons	-6644
load	-6645
urning	-6646
ancakes	-6647
▁Winter	-6648
▁comedy	-6649
▁pollen	-6650
▁Sending	-6651
▁daisies	-6652
▁pasting	-6653
▁reduces	-6654
▁tighter	-6655
▁brushing	-6656
▁relatable	-6657
▁resolving	-6658
▁friendlier	-6659
▁companionship	-6660
hus	-6661
▁Co	-6662
husi	-6663
qual	-6664
vent	-6665
▁Mom	-6666
▁ties	-6667
caping	-6668
ressed	-6669
▁panic	-6670
▁spoke	-6671
▁Ending	-6672
▁Living	-6673
▁sugary	-6674
▁trails	-6675
▁unseen	-6676
▁Healing	-6677
▁Moments	-6678
▁haunted	-6679
▁nations	-6680
▁rainbow	-6681
▁rustling	-6682
▁sidewalk	-6683
▁ecosystem	-6684
▁physically	-6685
nees	-6686
oomy	-6687
▁Unc	-6688
llent	-6689
▁Curi	-6690
▁These	-6691
▁crash	-6692
▁crawl	-6693
▁drawn	-6694
▁knees	-6695
▁loses	-6696
▁photo	-6697
mission	-6698
▁Hiding	-6699
▁planets	-6700
▁computer	-6701
▁distances	-6702
▁increased	-6703
▁disappointments	-6704
eria	-6705
▁Lau	-6706
▁Deep	-6707
▁gaps	-6708
▁vent	-6709
ieties	-6710
though	-6711
▁pushes	-6712
▁recall	-6713
▁pillows	-6714
▁accounts	-6715
▁dramatic	-6716
▁setbacks	-6717
▁workload	-6718
▁frightens	-6719
▁Respecting	-6720
▁unthinking	-6721
▁precautions	-6722
▁ob	-6723
enic	-6724
yrics	-6725
▁Also	-6726
▁soak	-6727
▁furry	-6728
▁rusty	-6729
▁shown	-6730
▁whisp	-6731
racking	-6732
▁Gloomy	-6733
▁claims	-6734
▁knives	-6735
▁mirror	-6736
▁plenty	-6737
▁soaked	-6738
▁Support	-6739
▁sweater	-6740
▁Trusting	-6741
▁Curiosity	-6742
▁excellent	-6743
▁nurturing	-6744
rew	-6745
▁trap	-6746
▁Organ	-6747
▁remed	-6748
▁trays	-6749
▁lyrics	-6750
▁shells	-6751
▁jackets	-6752
▁accepted	-6753
▁backyard	-6754
▁balloons	-6755
▁coldness	-6756
▁learners	-6757
▁consumers	-6758
▁permission	-6759
▁pleasantly	-6760
▁Sc	-6761
umst	-6762
allow	-6763
dered	-6764
rance	-6765
▁Blue	-6766
▁User	-6767
▁eaten	-6768
▁foggy	-6769
▁scrat	-6770
▁Flying	-6771
▁misuse	-6772
▁sleepy	-6773
▁airport	-6774
▁calling	-6775
▁circumst	-6776
▁dragging	-6777
▁perceive	-6778
▁unexcited	-6779
▁presenting	-6780
▁accomplished	-6781
▁personalities	-6782
lves	-6783
▁glue	-6784
▁sadd	-6785
depend	-6786
lphins	-6787
▁blades	-6788
▁fondly	-6789
▁taught	-6790
▁charming	-6791
▁trusting	-6792
▁underest	-6793
▁Chocolate	-6794
▁birthdays	-6795
▁inconvenient	-6796
▁thunderstorm	-6797
▁dw	-6798
▁Con	-6799
▁ads	-6800
happy	-6801
▁Last	-6802
▁More	-6803
▁chip	-6804
▁mail	-6805
▁crisp	-6806
▁misty	-6807
ivating	-6808
▁Acknow	-6809
▁stored	-6810
▁traits	-6811
▁couples	-6812
▁slowing	-6813
▁tongues	-6814
▁servants	-6815
▁fearfully	-6816
▁startling	-6817
▁Everything	-6818
▁assistance	-6819
▁resolution	-6820
▁mindfulness	-6821
▁circumstances	-6822
▁determination	-6823
▁heartbreaking	-6824
lt	-6825
▁Aut	-6826
usions	-6827
▁downt	-6828
▁backup	-6829
▁floors	-6830
▁genres	-6831
▁labels	-6832
▁reacts	-6833
▁failing	-6834
▁unequal	-6835
▁accurate	-6836
▁coughing	-6837
▁unnormal	-6838
▁fostering	-6839
▁protective	-6840
▁disorganized	-6841
▁unfulfilling	-6842
nel	-6843
rop	-6844
▁coc	-6845
▁Conf	-6846
▁Know	-6847
▁Soup	-6848
▁Simpl	-6849
atience	-6850
ppiness	-6851
▁easing	-6852
▁sheets	-6853
▁slopes	-6854
▁vanish	-6855
▁waving	-6856
▁ignores	-6857
▁deadline	-6858
▁frightful	-6859
▁presented	-6860
▁explanation	-6861
ext	-6862
▁Laugh	-6863
▁coast	-6864
▁giant	-6865
▁honor	-6866
▁Summer	-6867
▁coughs	-6868
▁overly	-6869
▁placed	-6870
▁pulled	-6871
▁tables	-6872
▁Smiling	-6873
▁continu	-6874
▁thicker	-6875
▁decrease	-6876
▁downtown	-6877
▁softness	-6878
bal	-6879
icky	-6880
▁Cows	-6881
▁zones	-6882
▁Monkey	-6883
▁silent	-6884
▁waited	-6885
▁forests	-6886
▁nurture	-6887
▁Laughing	-6888
▁although	-6889
▁Nostalgia	-6890
▁endlessly	-6891
▁listeners	-6892
▁scattered	-6893
▁unnatural	-6894
▁underestimate	-6895
▁accomplishment	-6896
chy	-6897
▁Bal	-6898
▁Don	-6899
▁Who	-6900
▁jam	-6901
icked	-6902
ighed	-6903
▁Rest	-6904
roving	-6905
▁Color	-6906
▁Could	-6907
▁Advent	-6908
▁bakery	-6909
▁chairs	-6910
▁selves	-6911
▁unconf	-6912
▁puzzles	-6913
▁collects	-6914
▁independ	-6915
▁sparkles	-6916
▁unworthy	-6917
▁squirrels	-6918
ote	-6919
acks	-6920
rove	-6921
▁rob	-6922
anned	-6923
erful	-6924
▁crazy	-6925
▁greet	-6926
▁glance	-6927
▁golden	-6928
▁member	-6929
▁safest	-6930
▁taller	-6931
▁Monkeys	-6932
▁elegant	-6933
▁heating	-6934
▁visible	-6935
▁followed	-6936
▁promised	-6937
▁spinning	-6938
▁Improving	-6939
▁dirtiness	-6940
▁disappearing	-6941
▁recommendations	-6942
nier	-6943
▁beds	-6944
▁cere	-6945
▁toot	-6946
▁brand	-6947
▁center	-6948
▁couldn	-6949
▁bending	-6950
▁weighed	-6951
▁adorable	-6952
▁pancakes	-6953
▁rewarded	-6954
▁strategy	-6955
▁backgrounds	-6956
▁educational	-6957
▁unpredictably	-6958
atur	-6959
▁eco	-6960
cepts	-6961
▁blew	-6962
▁Satur	-6963
▁bloss	-6964
▁forks	-6965
▁mispl	-6966
▁skirts	-6967
▁digital	-6968
▁porters	-6969
▁restful	-6970
▁attended	-6971
▁concepts	-6972
▁startled	-6973
▁advantage	-6974
▁powerless	-6975
▁Collecting	-6976
▁appliances	-6977
▁explanations	-6978
▁successfully	-6979
▁thoughtfully	-6980
▁communicating	-6981
etry	-6982
▁shy	-6983
▁grap	-6984
▁port	-6985
▁wines	-6986
▁Sticky	-6987
▁frames	-6988
▁serves	-6989
▁splash	-6990
▁wisdom	-6991
▁rhythms	-6992
▁displays	-6993
▁behaviour	-6994
▁expressions	-6995
▁unconfident	-6996
▁respectfully	-6997
▁Acknowledging	-6998
pell	-6999
▁wil	-7000
▁gear	-7001
▁hell	-7002
▁loop	-7003
aining	-7004
▁dental	-7005
▁unreal	-7006
▁Surpris	-7007
▁failure	-7008
▁strikes	-7009
▁enriches	-7010
▁graceful	-7011
▁polluted	-7012
▁reacting	-7013
▁unlikely	-7014
▁Yesterday	-7015
▁histories	-7016
bec	-7017
aming	-7018
eased	-7019
ption	-7020
▁brie	-7021
▁tone	-7022
phants	-7023
▁airpl	-7024
▁hangs	-7025
▁hello	-7026
▁tested	-7027
▁timely	-7028
▁unener	-7029
▁urgent	-7030
▁focuses	-7031
▁mothers	-7032
▁planted	-7033
▁sailors	-7034
▁stained	-7035
▁Saturday	-7036
▁resolved	-7037
▁achieving	-7038
▁nostalgic	-7039
▁innovation	-7040
ey	-7041
ub	-7042
▁Se	-7043
▁coz	-7044
▁wea	-7045
cient	-7046
ooming	-7047
▁bench	-7048
▁scarf	-7049
▁thous	-7050
▁truck	-7051
▁unche	-7052
▁beside	-7053
▁chills	-7054
▁garage	-7055
▁jumped	-7056
▁drawers	-7057
▁saddest	-7058
▁coverage	-7059
▁butterfly	-7060
▁dismissed	-7061
▁employees	-7062
▁Expressing	-7063
▁performing	-7064
ian	-7065
▁obv	-7066
▁fier	-7067
▁wedd	-7068
▁Little	-7069
▁boosts	-7070
▁petals	-7071
▁puzzle	-7072
catching	-7073
▁arrange	-7074
▁obvious	-7075
▁trained	-7076
▁weddings	-7077
▁disturbed	-7078
▁sparkling	-7079
▁unplanned	-7080
▁afternoons	-7081
▁embarrassed	-7082
▁unconnected	-7083
cl	-7084
▁Wh	-7085
fare	-7086
▁stood	-7087
▁Plants	-7088
▁Testing	-7089
▁airlines	-7090
▁appeared	-7091
▁canceled	-7092
▁relieved	-7093
▁constructive	-7094
sen	-7095
itar	-7096
inkle	-7097
water	-7098
cooked	-7099
olling	-7100
▁Trave	-7101
▁advoc	-7102
▁minor	-7103
▁reson	-7104
▁terri	-7105
▁fierce	-7106
▁Cutting	-7107
▁Jumping	-7108
▁avoided	-7109
▁daytime	-7110
▁Brighter	-7111
▁artistic	-7112
▁critical	-7113
▁vitamins	-7114
▁budgeting	-7115
▁Cleanliness	-7116
rops	-7117
▁Yet	-7118
▁ran	-7119
▁vet	-7120
▁earn	-7121
▁term	-7122
▁Dream	-7123
▁nests	-7124
▁score	-7125
▁absorb	-7126
wracking	-7127
▁gadgets	-7128
▁gaining	-7129
▁welfare	-7130
▁Stitching	-7131
▁affection	-7132
▁embarrass	-7133
▁overwhelm	-7134
▁ingredient	-7135
▁unprofessional	-7136
▁bank	-7137
▁wars	-7138
▁Breat	-7139
▁backs	-7140
▁cling	-7141
▁filmm	-7142
▁roses	-7143
▁Snacks	-7144
▁barbec	-7145
▁festiv	-7146
▁joined	-7147
▁rarely	-7148
▁swings	-7149
▁breezes	-7150
▁drained	-7151
▁privacy	-7152
▁sunnier	-7153
▁illnesses	-7154
▁harmonious	-7155
▁threatened	-7156
▁conclusions	-7157
aze	-7158
sty	-7159
▁Ce	-7160
▁ache	-7161
inform	-7162
▁buses	-7163
▁fairy	-7164
▁frost	-7165
▁piled	-7166
▁raind	-7167
acteria	-7168
▁Mixing	-7169
▁tomato	-7170
▁ancient	-7171
▁rapidly	-7172
▁Planting	-7173
▁humanity	-7174
▁searched	-7175
▁Breathing	-7176
▁misplaced	-7177
▁flickering	-7178
▁Friendships	-7179
▁confidently	-7180
▁questioning	-7181
▁'	-7182
ese	-7183
▁ung	-7184
▁Wool	-7185
▁skip	-7186
▁soar	-7187
▁weal	-7188
▁wins	-7189
lebrat	-7190
▁guitar	-7191
▁spoils	-7192
▁tootha	-7193
▁belongs	-7194
▁enthusi	-7195
▁Celebrat	-7196
▁bacteria	-7197
▁damaging	-7198
▁heighten	-7199
▁mechanic	-7200
▁monsters	-7201
▁passions	-7202
▁foolishly	-7203
▁promising	-7204
▁raindrops	-7205
▁Organizing	-7206
ooks	-7207
▁spee	-7208
▁cross	-7209
▁greed	-7210
▁sacri	-7211
▁Cotton	-7212
▁digest	-7213
▁sorted	-7214
▁Locking	-7215
▁blossom	-7216
▁crushing	-7217
▁Balancing	-7218
▁acknowled	-7219
▁functions	-7220
▁filmmakers	-7221
▁uncheerful	-7222
▁flexibility	-7223
▁overshadowed	-7224
▁Ra	-7225
▁Hot	-7226
ellow	-7227
hable	-7228
neath	-7229
▁fuel	-7230
▁lazy	-7231
anging	-7232
▁cases	-7233
▁Cheese	-7234
▁Yellow	-7235
▁colours	-7236
▁heading	-7237
▁sorting	-7238
▁Feelings	-7239
▁gloomier	-7240
▁original	-7241
▁preserve	-7242
▁smelling	-7243
▁vastness	-7244
▁Uncertain	-7245
▁sculpture	-7246
▁influenced	-7247
▁terrifying	-7248
▁underneath	-7249
ex	-7250
ism	-7251
nds	-7252
oop	-7253
▁bay	-7254
▁Long	-7255
▁Stea	-7256
▁coco	-7257
▁leak	-7258
▁unhy	-7259
▁bikes	-7260
▁dread	-7261
▁ovens	-7262
▁wrapp	-7263
▁Horses	-7264
▁lifted	-7265
▁Raising	-7266
▁enlight	-7267
▁Colorful	-7268
▁explored	-7269
▁positions	-7270
▁stretched	-7271
▁energizing	-7272
▁unhappiness	-7273
▁Hu	-7274
osal	-7275
▁sofa	-7276
lessly	-7277
▁Books	-7278
▁cozier	-7279
▁vision	-7280
▁Mapping	-7281
▁degrees	-7282
▁threats	-7283
▁concerts	-7284
▁belonging	-7285
▁profession	-7286
▁lighthearted	-7287
▁thoughtlessly	-7288
▁thoughtfulness	-7289
aws	-7290
osen	-7291
▁Mov	-7292
▁cap	-7293
▁tid	-7294
bered	-7295
▁sunr	-7296
▁tune	-7297
gienic	-7298
▁usage	-7299
▁mining	-7300
▁debates	-7301
▁feather	-7302
▁ordered	-7303
▁entrance	-7304
▁incident	-7305
▁toothache	-7306
▁preserving	-7307
▁collections	-7308
▁complaining	-7309
▁impressions	-7310
het	-7311
aste	-7312
▁sod	-7313
ilots	-7314
▁Mess	-7315
▁hund	-7316
▁nets	-7317
▁vict	-7318
mbered	-7319
tering	-7320
▁faith	-7321
▁restr	-7322
▁swing	-7323
▁amazes	-7324
▁bursts	-7325
▁fruity	-7326
▁overfl	-7327
▁rested	-7328
▁harvest	-7329
▁captures	-7330
▁comedies	-7331
▁escaping	-7332
▁striking	-7333
▁remembered	-7334
▁Uncertainty	-7335
▁enlightening	-7336
▁lie	-7337
▁nap	-7338
▁tar	-7339
ppies	-7340
▁math	-7341
▁alarm	-7342
▁dates	-7343
▁slice	-7344
▁stall	-7345
▁terms	-7346
▁appeal	-7347
▁cheers	-7348
▁chosen	-7349
▁costly	-7350
▁folded	-7351
▁sacrif	-7352
▁signal	-7353
▁cameras	-7354
▁cheeses	-7355
▁decides	-7356
▁kissing	-7357
▁Patience	-7358
▁remedies	-7359
▁wellness	-7360
▁collected	-7361
▁generally	-7362
▁industries	-7363
▁photograph	-7364
▁contributes	-7365
isc	-7366
umpy	-7367
▁non	-7368
ashes	-7369
ropri	-7370
▁Alex	-7371
belief	-7372
▁beats	-7373
▁Movies	-7374
▁buyers	-7375
▁poetry	-7376
▁rolled	-7377
▁worksh	-7378
▁insight	-7379
▁bathroom	-7380
▁limiting	-7381
▁comforted	-7382
▁musicians	-7383
▁accessories	-7384
io	-7385
asm	-7386
lew	-7387
▁Tot	-7388
▁arom	-7389
▁flew	-7390
▁balls	-7391
▁heals	-7392
▁swift	-7393
▁tends	-7394
looking	-7395
▁adapts	-7396
▁catchy	-7397
▁cookie	-7398
▁divide	-7399
▁floods	-7400
▁kicked	-7401
▁uneven	-7402
▁wealth	-7403
▁Dancing	-7404
▁Improve	-7405
▁Totally	-7406
▁chewing	-7407
▁slipped	-7408
▁snowman	-7409
▁stubbed	-7410
▁dolphins	-7411
▁promotes	-7412
▁disrupted	-7413
▁involving	-7414
▁accessible	-7415
▁critically	-7416
▁unhygienic	-7417
▁perceptions	-7418
▁et	-7419
aign	-7420
▁Ber	-7421
▁ath	-7422
▁none	-7423
▁pepp	-7424
▁soda	-7425
▁warn	-7426
▁Humor	-7427
▁reset	-7428
▁packed	-7429
▁flutter	-7430
▁staring	-7431
▁sweetly	-7432
▁arriving	-7433
▁attracts	-7434
▁cultural	-7435
▁enhances	-7436
▁findings	-7437
▁restrict	-7438
onsiderate	-7439
▁designers	-7440
information	-7441
▁durability	-7442
▁disagreement	-7443
unte	-7444
vere	-7445
▁Man	-7446
▁echo	-7447
▁pink	-7448
▁wrap	-7449
▁Peace	-7450
▁recyc	-7451
lasting	-7452
manship	-7453
▁Autumn	-7454
▁direct	-7455
▁routes	-7456
▁switch	-7457
▁clarify	-7458
▁updated	-7459
▁advocate	-7460
▁campaign	-7461
▁cheering	-7462
▁disbelief	-7463
▁festivals	-7464
▁patiently	-7465
▁producing	-7466
▁rainstorm	-7467
▁realities	-7468
▁performers	-7469
▁electricity	-7470
abb	-7471
com	-7472
▁ast	-7473
▁sip	-7474
gress	-7475
▁poss	-7476
▁sits	-7477
▁upon	-7478
▁Parks	-7479
▁Water	-7480
▁blind	-7481
▁repet	-7482
▁Lately	-7483
▁arises	-7484
▁drying	-7485
▁filthy	-7486
▁severe	-7487
▁varied	-7488
▁Falling	-7489
▁monster	-7490
▁counting	-7491
▁drifting	-7492
▁includes	-7493
▁adjusting	-7494
▁isolating	-7495
▁difficulty	-7496
▁gloominess	-7497
▁healthcare	-7498
▁professionals	-7499
▁understandings	-7500
eats	-7501
▁und	-7502
▁date	-7503
▁dough	-7504
▁handy	-7505
▁waits	-7506
▁interc	-7507
▁liking	-7508
▁shower	-7509
▁protects	-7510
▁wrappers	-7511
▁irritated	-7512
▁captivating	-7513
▁embarrassing	-7514
▁interconnected	-7515
▁misinformation	-7516
att	-7517
ower	-7518
▁Dig	-7519
▁Pro	-7520
▁crew	-7521
▁mild	-7522
mbling	-7523
ossing	-7524
▁Relax	-7525
▁cocoa	-7526
▁optim	-7527
▁soggy	-7528
▁stale	-7529
▁arches	-7530
▁double	-7531
▁formed	-7532
▁grumpy	-7533
▁melted	-7534
▁messed	-7535
▁Gardens	-7536
▁popping	-7537
▁notebook	-7538
▁respects	-7539
▁demanding	-7540
▁persistent	-7541
▁pretending	-7542
▁seriousness	-7543
▁willingness	-7544
▁inconsiderate	-7545
▁irresponsible	-7546
we	-7547
bly	-7548
ixt	-7549
oul	-7550
bble	-7551
gues	-7552
hill	-7553
ooth	-7554
ware	-7555
▁pha	-7556
▁rad	-7557
ators	-7558
▁Inse	-7559
▁scra	-7560
mother	-7561
▁bumps	-7562
▁blocks	-7563
▁dances	-7564
▁device	-7565
▁relive	-7566
▁unused	-7567
▁archite	-7568
▁greener	-7569
▁session	-7570
▁stepped	-7571
▁tidying	-7572
▁volunte	-7573
▁homework	-7574
▁loudness	-7575
▁produces	-7576
▁recycled	-7577
▁coworkers	-7578
▁complexity	-7579
▁convenient	-7580
▁enthusiasm	-7581
▁innovations	-7582
▁compassionate	-7583
gr	-7584
rn	-7585
rs	-7586
ars	-7587
▁Bo	-7588
ccer	-7589
ilty	-7590
▁Fru	-7591
▁Rec	-7592
▁tit	-7593
▁Comp	-7594
▁Gold	-7595
▁cave	-7596
▁fort	-7597
▁lamp	-7598
▁rabb	-7599
▁torn	-7600
▁broad	-7601
▁ideal	-7602
▁ticks	-7603
▁trail	-7604
vesting	-7605
▁Recogn	-7606
▁chains	-7607
▁guilty	-7608
▁proced	-7609
▁rubber	-7610
▁soccer	-7611
▁solved	-7612
▁Insects	-7613
▁Shouldn	-7614
▁Smoking	-7615
▁cycling	-7616
▁disposal	-7617
▁replaced	-7618
▁Traveling	-7619
▁photography	-7620
▁troublesome	-7621
scre	-7622
▁Cra	-7623
▁Out	-7624
▁alb	-7625
▁pee	-7626
▁plu	-7627
lling	-7628
▁Care	-7629
▁carp	-7630
▁chir	-7631
▁user	-7632
filled	-7633
ubbing	-7634
▁Night	-7635
▁spell	-7636
▁wrote	-7637
▁couple	-7638
▁critic	-7639
▁dampen	-7640
▁famous	-7641
▁absence	-7642
▁grazing	-7643
▁reveals	-7644
▁sunrise	-7645
▁Darkness	-7646
▁Managing	-7647
▁toughest	-7648
▁Educating	-7649
▁noticeable	-7650
spo	-7651
ctic	-7652
▁maj	-7653
▁shr	-7654
▁Plus	-7655
▁dece	-7656
▁harb	-7657
▁link	-7658
▁nest	-7659
▁sund	-7660
▁vegg	-7661
ifying	-7662
▁erase	-7663
▁lived	-7664
▁scrap	-7665
▁slows	-7666
▁cloths	-7667
▁models	-7668
▁pillow	-7669
▁trades	-7670
finished	-7671
▁Leather	-7672
▁aggress	-7673
▁blocked	-7674
▁returned	-7675
▁stranger	-7676
▁unsatisf	-7677
▁generation	-7678
▁selections	-7679
▁grandmother	-7680
▁technologies	-7681
if	-7682
shm	-7683
▁Br	-7684
lets	-7685
osed	-7686
▁Ign	-7687
▁fro	-7688
urbul	-7689
usive	-7690
▁Then	-7691
active	-7692
screen	-7693
▁unspo	-7694
▁asleep	-7695
▁histor	-7696
▁pilots	-7697
▁savory	-7698
▁speech	-7699
▁theirs	-7700
▁sundown	-7701
▁Ignoring	-7702
▁articles	-7703
▁distress	-7704
▁haunting	-7705
▁homemade	-7706
▁managers	-7707
▁addressed	-7708
▁completing	-7709
▁disappeared	-7710
▁unrealistic	-7711
bee	-7712
▁Bu	-7713
▁ge	-7714
prov	-7715
ured	-7716
▁Off	-7717
isbee	-7718
▁unac	-7719
▁Money	-7720
▁Young	-7721
▁bland	-7722
▁plots	-7723
▁poems	-7724
▁sails	-7725
▁Clouds	-7726
▁biking	-7727
▁intell	-7728
▁orders	-7729
▁pinned	-7730
▁article	-7731
▁females	-7732
▁hairsty	-7733
▁sharper	-7734
▁spiders	-7735
provoking	-7736
▁artworks	-7737
▁dullness	-7738
▁hesitant	-7739
▁selfishly	-7740
▁colleagues	-7741
▁efficiency	-7742
▁trustworthy	-7743
uss	-7744
▁Fr	-7745
▁led	-7746
▁sat	-7747
▁init	-7748
racing	-7749
▁acids	-7750
▁align	-7751
▁couch	-7752
▁crave	-7753
▁showc	-7754
▁units	-7755
▁fuller	-7756
▁morale	-7757
▁scraps	-7758
▁boredom	-7759
▁partner	-7760
consuming	-7761
▁advanced	-7762
▁intellig	-7763
▁previous	-7764
▁Surprises	-7765
▁adaptable	-7766
▁scientific	-7767
oof	-7768
ology	-7769
ously	-7770
▁firm	-7771
▁oils	-7772
▁purs	-7773
▁bells	-7774
▁cring	-7775
▁girls	-7776
▁marshm	-7777
▁pasted	-7778
▁speaks	-7779
▁spider	-7780
▁written	-7781
▁hesitate	-7782
▁completed	-7783
▁containers	-7784
▁perception	-7785
▁sacrifices	-7786
▁unfinished	-7787
▁Celebrating	-7788
▁Discovering	-7789
▁adaptations	-7790
▁gy	-7791
ashy	-7792
elly	-7793
etch	-7794
orre	-7795
oved	-7796
▁flu	-7797
▁Poor	-7798
▁mixt	-7799
▁pave	-7800
▁lists	-7801
▁meets	-7802
cepting	-7803
▁Dreams	-7804
▁Hallow	-7805
▁athlet	-7806
▁cringe	-7807
▁spoken	-7808
▁stalls	-7809
ishments	-7810
▁exhaust	-7811
▁sellers	-7812
▁Offering	-7813
▁feathers	-7814
▁investig	-7815
▁unspoken	-7816
▁vacation	-7817
▁Halloween	-7818
▁elephants	-7819
▁elsewhere	-7820
▁sunscreen	-7821
▁withstand	-7822
▁moderation	-7823
▁unfriendly	-7824
▁possessions	-7825
▁sustainability	-7826
ata	-7827
irty	-7828
▁Acc	-7829
▁ten	-7830
arily	-7831
ested	-7832
otect	-7833
▁Snow	-7834
▁snap	-7835
allows	-7836
▁mines	-7837
▁mixes	-7838
▁sorts	-7839
▁unatt	-7840
▁wraps	-7841
▁Colors	-7842
▁Things	-7843
▁bubble	-7844
▁endure	-7845
▁hectic	-7846
▁paints	-7847
▁unless	-7848
▁wooden	-7849
▁Convers	-7850
▁frisbee	-7851
▁hundred	-7852
▁vehicle	-7853
▁simplify	-7854
▁tomatoes	-7855
▁incidents	-7856
▁reassuring	-7857
▁Conversations	-7858
ari	-7859
fall	-7860
▁Del	-7861
▁cud	-7862
▁gat	-7863
▁loo	-7864
avity	-7865
ended	-7866
▁Chal	-7867
▁Silk	-7868
▁bask	-7869
▁yoga	-7870
▁revis	-7871
▁Crying	-7872
▁Giving	-7873
▁Saving	-7874
▁closet	-7875
▁infect	-7876
▁wallet	-7877
▁Fashion	-7878
▁Turning	-7879
▁notices	-7880
▁slither	-7881
▁throats	-7882
▁veggies	-7883
▁athletes	-7884
▁gathered	-7885
▁realizes	-7886
▁stations	-7887
▁Accepting	-7888
▁engineers	-7889
▁replacing	-7890
▁explaining	-7891
▁optimistic	-7892
▁Recognizing	-7893
▁flashlights	-7894
▁acknowledged	-7895
gen	-7896
bris	-7897
▁Cal	-7898
▁unh	-7899
ource	-7900
▁Clot	-7901
▁Hist	-7902
▁News	-7903
▁Outd	-7904
▁fees	-7905
▁spar	-7906
▁Compl	-7907
▁insec	-7908
▁pairs	-7909
otected	-7910
ronting	-7911
▁announ	-7912
▁dearly	-7913
▁debris	-7914
▁puddle	-7915
▁riverb	-7916
▁slices	-7917
▁yogurt	-7918
▁battles	-7919
▁	-7920
e	-7921
t	-7922
a	-7923
o	-7924
n	-7925
s	-7926
i	-7927
r	-7928
h	-7929
l	-7930
d	-7931
u	-7932
g	-7933
y	-7934
m	-7935
c	-7936
f	-7937
w	-7938
p	-7939
b	-7940
k	-7941
.	-7942
,	-7943
I	-7944
v	-7945
j	-7946
Y	-7947
?	-7948
T	-7949
x	-7950
D	-7951
H	-7952
q	-7953
W	-7954
;	-7955
'	-7956
S	-7957
A	-7958
M	-7959
z	-7960
F	-7961
E	-7962
R	-7963
’	-7964
C	-7965
L	-7966
-	-7967
P	-7968
B	-7969
N	-7970
O	-7971
!	-7972
G	-7973
K	-7974
U	-7975
J	-7976
V	-7977
é	-7978
Q	-7979
"	-7980
]	-7981
/	-7982
[	-7983
ñ	-7984
<	-7985
>	-7986
:	-7987
—	-7988
‘	-7989
“	-7990
”	-7991
0	-7992
1	-7993
